<unk>	0
<s>	0
</s>	0
__	-0
____	-1
▁____	-2
___	-3
▁________	-4
▁_	-5
er	-6
in	-7
▁__	-8
_____	-9
▁s	-10
on	-11
es	-12
▁p	-13
an	-14
▁c	-15
ti	-16
al	-17
en	-18
ed	-19
▁___	-20
▁____________	-21
ar	-22
is	-23
at	-24
or	-25
______	-26
▁m	-27
ic	-28
▁_________	-29
▁u	-30
▁b	-31
▁t	-32
▁_______	-33
▁d	-34
re	-35
▁__________	-36
le	-37
ro	-38
▁_____	-39
▁______	-40
ing	-41
▁a	-42
el	-43
▁___________	-44
▁h	-45
it	-46
ra	-47
us	-48
_______	-49
▁un	-50
▁n	-51
▁f	-52
ly	-53
▁g	-54
il	-55
as	-56
ol	-57
ch	-58
▁o	-59
om	-60
ri	-61
et	-62
▁l	-63
ul	-64
▁e	-65
os	-66
▁w	-67
▁_____________	-68
id	-69
ess	-70
ph	-71
ac	-72
________	-73
ab	-74
ur	-75
▁r	-76
ot	-77
em	-78
ati	-79
st	-80
am	-81
og	-82
li	-83
▁______________	-84
un	-85
ent	-86
ut	-87
um	-88
ec	-89
op	-90
ad	-91
ous	-92
▁re	-93
ter	-94
te	-95
▁v	-96
oc	-97
ia	-98
▁in	-99
th	-100
od	-101
▁i	-102
ag	-103
tic	-104
▁k	-105
qu	-106
iz	-107
_________	-108
ve	-109
ig	-110
ers	-111
▁non	-112
▁_______________	-113
ap	-114
lo	-115
ir	-116
ist	-117
ub	-118
la	-119
ate	-120
▁an	-121
he	-122
ne	-123
ver	-124
ip	-125
ng	-126
▁ch	-127
ce	-128
ness	-129
im	-130
ation	-131
▁j	-132
se	-133
up	-134
▁st	-135
if	-136
▁co	-137
ss	-138
uc	-139
est	-140
sh	-141
ud	-142
ea	-143
and	-144
ep	-145
ke	-146
si	-147
ou	-148
ow	-149
ine	-150
ie	-151
ry	-152
ell	-153
__________	-154
ta	-155
ism	-156
▁sp	-157
ian	-158
tion	-159
de	-160
nt	-161
ity	-162
ff	-163
ally	-164
able	-165
ob	-166
ll	-167
ant	-168
co	-169
ish	-170
ib	-171
ae	-172
ct	-173
▁al	-174
ite	-175
▁th	-176
ion	-177
▁pre	-178
ma	-179
di	-180
▁de	-181
▁pr	-182
▁ph	-183
to	-184
▁pro	-185
yp	-186
io	-187
▁qu	-188
▁ar	-189
▁sh	-190
tr	-191
mp	-192
iv	-193
ted	-194
der	-195
ge	-196
▁con	-197
▁over	-198
ill	-199
ard	-200
me	-201
yl	-202
▁sc	-203
ran	-204
ug	-205
sp	-206
all	-207
ay	-208
▁ex	-209
ies	-210
▁en	-211
ath	-212
oph	-213
ni	-214
ric	-215
na	-216
ts	-217
ated	-218
▁sub	-219
oo	-220
man	-221
nd	-222
con	-223
▁ro	-224
av	-225
▁z	-226
olog	-227
ee	-228
bl	-229
ak	-230
▁dis	-231
ns	-232
iti	-233
ho	-234
ty	-235
mo	-236
eg	-237
sc	-238
▁ra	-239
▁le	-240
▁y	-241
pe	-242
ial	-243
bo	-244
___________	-245
ha	-246
eness	-247
ex	-248
ize	-249
ast	-250
ical	-251
pl	-252
ht	-253
end	-254
orm	-255
ang	-256
mb	-257
ack	-258
ck	-259
ely	-260
per	-261
ca	-262
sm	-263
▁po	-264
mi	-265
ost	-266
▁se	-267
▁ma	-268
ys	-269
▁sup	-270
ron	-271
ator	-272
ind	-273
hi	-274
eb	-275
▁ac	-276
yn	-277
rop	-278
ful	-279
one	-280
▁out	-281
ary	-282
aw	-283
no	-284
▁di	-285
rs	-286
▁par	-287
lu	-288
cy	-289
▁no	-290
ene	-291
raph	-292
und	-293
ment	-294
▁tr	-295
cl	-296
po	-297
▁ca	-298
be	-299
▁per	-300
ci	-301
▁be	-302
▁sel	-303
tra	-304
ass	-305
of	-306
pr	-307
▁pl	-308
ide	-309
▁ne	-310
▁or	-311
ze	-312
ect	-313
ure	-314
hy	-315
vi	-316
less	-317
ating	-318
ens	-319
pro	-320
ick	-321
▁hy	-322
fi	-323
her	-324
▁ti	-325
we	-326
ise	-327
ock	-328
pi	-329
abl	-330
▁ad	-331
ort	-332
ble	-333
▁sem	-334
ach	-335
▁mis	-336
▁am	-337
ari	-338
low	-339
ber	-340
ting	-341
nc	-342
lin	-343
▁su	-344
▁car	-345
▁hyp	-346
▁anti	-347
▁inter	-348
ong	-349
ai	-350
com	-351
▁he	-352
▁tw	-353
erm	-354
▁com	-355
au	-356
led	-357
oid	-358
ru	-359
▁uns	-360
▁mo	-361
▁ap	-362
rom	-363
▁te	-364
ille	-365
age	-366
ok	-367
pt	-368
ym	-369
▁fl	-370
▁self	-371
ore	-372
ace	-373
▁pa	-374
ord	-375
▁cl	-376
gi	-377
eter	-378
ith	-379
▁mon	-380
tiv	-381
ox	-382
ins	-383
ah	-384
red	-385
row	-386
ingly	-387
▁wh	-388
▁bl	-389
ov	-390
▁ab	-391
▁ha	-392
____________	-393
mm	-394
ons	-395
ility	-396
▁pe	-397
▁ov	-398
ier	-399
ks	-400
ood	-401
art	-402
▁und	-403
ef	-404
sy	-405
▁me	-406
ular	-407
res	-408
les	-409
tu	-410
oth	-411
ton	-412
▁super	-413
ograph	-414
orn	-415
▁bo	-416
gh	-417
enti	-418
ling	-419
▁q	-420
ically	-421
rid	-422
rin	-423
fe	-424
ium	-425
tin	-426
istic	-427
pa	-428
ker	-429
▁ba	-430
▁so	-431
like	-432
nes	-433
ose	-434
eth	-435
ue	-436
▁tri	-437
▁is	-438
ki	-439
tor	-440
▁for	-441
old	-442
anc	-443
▁sa	-444
atic	-445
bi	-446
gl	-447
▁res	-448
▁mar	-449
ew	-450
fo	-451
rd	-452
so	-453
let	-454
▁imp	-455
▁well	-456
▁la	-457
ized	-458
ond	-459
cu	-460
ga	-461
ev	-462
rt	-463
▁br	-464
ld	-465
int	-466
▁el	-467
pp	-468
omy	-469
ence	-470
ler	-471
rm	-472
ates	-473
gra	-474
idae	-475
▁mi	-476
▁ri	-477
ome	-478
ans	-479
▁ta	-480
ba	-481
sa	-482
▁fo	-483
▁pal	-484
▁ep	-485
ously	-486
da	-487
▁tra	-488
▁my	-489
do	-490
ater	-491
▁hal	-492
▁cor	-493
igh	-494
ger	-495
▁sw	-496
min	-497
gr	-498
ash	-499
▁cy	-500
▁dec	-501
▁col	-502
ative	-503
men	-504
▁cr	-505
tis	-506
▁gl	-507
ich	-508
ps	-509
ere	-510
gen	-511
tt	-512
esc	-513
ville	-514
king	-515
gu	-516
▁unp	-517
▁under	-518
ned	-519
uri	-520
▁red	-521
tive	-522
▁to	-523
cul	-524
lect	-525
iness	-526
▁met	-527
▁bar	-528
ane	-529
▁at	-530
ali	-531
ors	-532
eli	-533
▁pse	-534
mer	-535
ust	-536
fer	-537
go	-538
ven	-539
ica	-540
▁lo	-541
ably	-542
▁gr	-543
ili	-544
ked	-545
▁quas	-546
▁do	-547
ina	-548
che	-549
ship	-550
ousness	-551
▁x	-552
bu	-553
cal	-554
ner	-555
ey	-556
▁ho	-557
mon	-558
▁cal	-559
▁poly	-560
ged	-561
▁bra	-562
ive	-563
▁mic	-564
wor	-565
cr	-566
ght	-567
▁gra	-568
fl	-569
oi	-570
▁er	-571
▁sl	-572
dr	-573
▁sy	-574
ogen	-575
▁we	-576
▁ag	-577
own	-578
ral	-579
▁py	-580
osis	-581
ten	-582
▁sk	-583
va	-584
▁man	-585
ability	-586
az	-587
▁tran	-588
aph	-589
bur	-590
cop	-591
tro	-592
oli	-593
rac	-594
▁li	-595
eri	-596
enc	-597
iss	-598
▁gu	-599
ance	-600
▁bi	-601
▁si	-602
och	-603
ls	-604
ale	-605
br	-606
izing	-607
▁unf	-608
ram	-609
▁sn	-610
rr	-611
ign	-612
dro	-613
ax	-614
rn	-615
ori	-616
ology	-617
ight	-618
ree	-619
ings	-620
▁unc	-621
▁aut	-622
▁pseud	-623
ped	-624
▁sch	-625
are	-626
erv	-627
af	-628
ice	-629
head	-630
ds	-631
ula	-632
chi	-633
str	-634
omet	-635
ush	-636
▁ge	-637
ire	-638
wa	-639
las	-640
ations	-641
orph	-642
▁fa	-643
oe	-644
ple	-645
ros	-646
ata	-647
anth	-648
▁coun	-649
log	-650
ont	-651
oss	-652
ered	-653
▁dem	-654
▁ste	-655
uck	-656
▁up	-657
▁ga	-658
edness	-659
por	-660
ann	-661
our	-662
ero	-663
▁hem	-664
▁ob	-665
eae	-666
oma	-667
ull	-668
oni	-669
ua	-670
roph	-671
ura	-672
ka	-673
inc	-674
ised	-675
ase	-676
gn	-677
act	-678
▁fe	-679
yt	-680
phal	-681
ement	-682
▁pi	-683
tio	-684
ato	-685
par	-686
ual	-687
▁ind	-688
▁wor	-689
ery	-690
form	-691
▁fr	-692
▁as	-693
▁rec	-694
ern	-695
lor	-696
ars	-697
tical	-698
▁rh	-699
ization	-700
arm	-701
pos	-702
rc	-703
yc	-704
ableness	-705
_____________	-706
▁mal	-707
▁sal	-708
eo	-709
ities	-710
▁bu	-711
nn	-712
su	-713
era	-714
ole	-715
▁wa	-716
ft	-717
▁sm	-718
edly	-719
gy	-720
▁des	-721
ying	-722
▁cro	-723
uth	-724
oman	-725
que	-726
att	-727
ters	-728
oll	-729
▁mul	-730
als	-731
dy	-732
ativ	-733
ste	-734
zo	-735
kin	-736
▁go	-737
fic	-738
the	-739
sti	-740
atory	-741
arch	-742
▁squ	-743
ists	-744
▁unre	-745
amp	-746
rat	-747
onic	-748
▁all	-749
ade	-750
tur	-751
ring	-752
▁tur	-753
ny	-754
▁ent	-755
ied	-756
ined	-757
ren	-758
vel	-759
amb	-760
ines	-761
isc	-762
▁bro	-763
ising	-764
▁post	-765
leg	-766
ms	-767
▁da	-768
orr	-769
ugh	-770
▁es	-771
ote	-772
ik	-773
cc	-774
▁unm	-775
den	-776
▁mu	-777
lic	-778
sion	-779
ini	-780
▁ly	-781
wo	-782
rag	-783
ung	-784
ory	-785
▁unb	-786
hip	-787
pre	-788
tically	-789
ile	-790
aceae	-791
iform	-792
▁wo	-793
fu	-794
ky	-795
rit	-796
nal	-797
tri	-798
▁op	-799
ana	-800
for	-801
▁hom	-802
olo	-803
eld	-804
fa	-805
erc	-806
ris	-807
umb	-808
▁ul	-809
wi	-810
▁inc	-811
eu	-812
arp	-813
rg	-814
vo	-815
ete	-816
▁the	-817
rous	-818
▁mel	-819
ark	-820
atch	-821
lly	-822
▁im	-823
▁em	-824
▁sul	-825
atio	-826
oh	-827
ye	-828
ani	-829
yg	-830
ious	-831
ets	-832
lf	-833
ett	-834
ui	-835
▁half	-836
zed	-837
▁int	-838
med	-839
▁ver	-840
itis	-841
▁fi	-842
▁vi	-843
itt	-844
▁cap	-845
land	-846
unc	-847
ank	-848
rb	-849
zz	-850
▁mes	-851
ress	-852
ara	-853
▁dep	-854
rog	-855
ley	-856
vers	-857
▁hyper	-858
ret	-859
ster	-860
til	-861
sis	-862
arian	-863
aceous	-864
▁ser	-865
▁pred	-866
ific	-867
▁pan	-868
my	-869
ded	-870
▁cat	-871
▁sol	-872
lec	-873
▁ir	-874
ward	-875
ria	-876
▁gre	-877
illi	-878
▁bur	-879
▁pres	-880
▁ox	-881
▁mac	-882
roc	-883
▁inf	-884
inn	-885
arc	-886
tal	-887
▁counter	-888
▁du	-889
bb	-890
fac	-891
ored	-892
▁ce	-893
tional	-894
dom	-895
ently	-896
unt	-897
du	-898
▁arch	-899
nf	-900
acc	-901
oy	-902
▁id	-903
out	-904
▁ev	-905
ei	-906
ora	-907
▁syn	-908
▁phot	-909
oa	-910
elli	-911
▁can	-912
▁har	-913
uss	-914
▁pu	-915
fish	-916
way	-917
app	-918
ita	-919
phy	-920
wood	-921
nti	-922
▁cir	-923
rot	-924
▁end	-925
▁tet	-926
col	-927
ump	-928
els	-929
ail	-930
val	-931
esis	-932
len	-933
hr	-934
▁bal	-935
▁cra	-936
met	-937
ink	-938
anti	-939
ries	-940
▁ins	-941
▁nons	-942
ird	-943
▁sil	-944
▁sti	-945
ensi	-946
▁ant	-947
other	-948
▁ter	-949
ida	-950
▁gal	-951
erous	-952
▁kn	-953
yr	-954
duc	-955
eck	-956
ain	-957
bor	-958
vis	-959
▁her	-960
▁min	-961
▁emb	-962
tions	-963
ics	-964
inal	-965
za	-966
▁tre	-967
▁pri	-968
lt	-969
ook	-970
ena	-971
ult	-972
▁rep	-973
▁uncon	-974
eni	-975
▁ed	-976
atin	-977
arg	-978
aster	-979
▁cu	-980
ophy	-981
▁unh	-982
bed	-983
gg	-984
▁che	-985
▁ill	-986
▁dr	-987
▁pol	-988
oscop	-989
mat	-990
▁ve	-991
▁del	-992
ona	-993
▁pen	-994
mic	-995
ott	-996
rap	-997
▁ove	-998
▁cur	-999
ola	-1000
bar	-1001
ele	-1002
▁ass	-1003
fy	-1004
nic	-1005
ible	-1006
dd	-1007
son	-1008
ved	-1009
▁sur	-1010
▁cop	-1011
wn	-1012
ert	-1013
ute	-1014
▁ref	-1015
ya	-1016
rec	-1017
▁elect	-1018
aff	-1019
ses	-1020
ette	-1021
ency	-1022
sych	-1023
ums	-1024
▁ps	-1025
ame	-1026
ino	-1027
▁ou	-1028
ital	-1029
itch	-1030
▁she	-1031
ats	-1032
hal	-1033
▁mus	-1034
▁mer	-1035
▁overs	-1036
lar	-1037
bre	-1038
oly	-1039
ear	-1040
▁af	-1041
ily	-1042
▁on	-1043
iter	-1044
rp	-1045
amm	-1046
gan	-1047
ella	-1048
▁tro	-1049
tid	-1050
tl	-1051
eless	-1052
ometer	-1053
▁ple	-1054
tim	-1055
gs	-1056
uk	-1057
▁ke	-1058
▁na	-1059
ias	-1060
uff	-1061
ese	-1062
ipp	-1063
▁ol	-1064
ocy	-1065
atur	-1066
vol	-1067
onal	-1068
▁bas	-1069
▁cre	-1070
ulate	-1071
▁trans	-1072
cha	-1073
▁ten	-1074
proof	-1075
▁mag	-1076
▁mor	-1077
ational	-1078
hu	-1079
bra	-1080
cer	-1081
▁hydro	-1082
car	-1083
edi	-1084
emp	-1085
▁nond	-1086
sk	-1087
lan	-1088
▁va	-1089
ites	-1090
ering	-1091
lay	-1092
ope	-1093
ging	-1094
hed	-1095
wise	-1096
ving	-1097
by	-1098
▁eu	-1099
dl	-1100
▁unt	-1101
▁unw	-1102
iff	-1103
▁tu	-1104
▁wi	-1105
osp	-1106
ves	-1107
zing	-1108
▁bel	-1109
▁micro	-1110
▁ben	-1111
▁zo	-1112
▁cer	-1113
cep	-1114
▁semi	-1115
tes	-1116
use	-1117
▁cry	-1118
▁pat	-1119
rl	-1120
ties	-1121
▁anth	-1122
rig	-1123
ouse	-1124
rip	-1125
ited	-1126
▁bre	-1127
inter	-1128
▁twic	-1129
▁fer	-1130
ological	-1131
mis	-1132
nesses	-1133
▁fu	-1134
ild	-1135
esh	-1136
ras	-1137
its	-1138
ologist	-1139
yd	-1140
aped	-1141
ici	-1142
ify	-1143
xi	-1144
▁prot	-1145
mn	-1146
eric	-1147
▁cle	-1148
off	-1149
▁equ	-1150
ode	-1151
iled	-1152
▁phil	-1153
ots	-1154
urs	-1155
dle	-1156
▁mid	-1157
lit	-1158
tit	-1159
▁tar	-1160
ken	-1161
izes	-1162
eh	-1163
cho	-1164
press	-1165
eta	-1166
lle	-1167
▁pos	-1168
zi	-1169
ela	-1170
▁ber	-1171
▁cam	-1172
cum	-1173
mar	-1174
▁ru	-1175
▁ster	-1176
lat	-1177
emi	-1178
▁tric	-1179
tively	-1180
bly	-1181
ges	-1182
pen	-1183
▁au	-1184
▁ni	-1185
pu	-1186
har	-1187
▁bed	-1188
______________	-1189
jo	-1190
rk	-1191
ogn	-1192
▁back	-1193
ano	-1194
back	-1195
osph	-1196
bs	-1197
hor	-1198
▁hol	-1199
▁ast	-1200
▁hu	-1201
ched	-1202
▁dra	-1203
ept	-1204
▁ka	-1205
▁lu	-1206
ning	-1207
hood	-1208
cent	-1209
▁long	-1210
▁ty	-1211
ured	-1212
eal	-1213
▁mil	-1214
▁reg	-1215
asi	-1216
idi	-1217
eral	-1218
lav	-1219
▁stra	-1220
▁heter	-1221
nu	-1222
▁et	-1223
umin	-1224
weed	-1225
aria	-1226
▁comp	-1227
rel	-1228
tie	-1229
▁pet	-1230
▁cha	-1231
ions	-1232
tism	-1233
▁world	-1234
emb	-1235
ops	-1236
urg	-1237
▁gro	-1238
kn	-1239
mit	-1240
nce	-1241
▁ec	-1242
▁bes	-1243
▁def	-1244
▁dip	-1245
burg	-1246
elle	-1247
mu	-1248
isp	-1249
ides	-1250
omorph	-1251
net	-1252
ony	-1253
iest	-1254
vent	-1255
▁fre	-1256
▁hand	-1257
▁cas	-1258
▁gar	-1259
▁pap	-1260
ography	-1261
▁vol	-1262
▁cons	-1263
sed	-1264
▁imm	-1265
ality	-1266
fully	-1267
dic	-1268
amin	-1269
illa	-1270
oce	-1271
rie	-1272
cin	-1273
gar	-1274
osi	-1275
aci	-1276
pha	-1277
▁but	-1278
▁phy	-1279
mun	-1280
py	-1281
can	-1282
▁por	-1283
▁tub	-1284
oplas	-1285
ama	-1286
▁jo	-1287
enic	-1288
tain	-1289
▁acc	-1290
lli	-1291
yed	-1292
uses	-1293
sl	-1294
wh	-1295
ala	-1296
ema	-1297
rib	-1298
thy	-1299
▁lim	-1300
tia	-1301
▁ang	-1302
▁hi	-1303
rown	-1304
▁flu	-1305
ule	-1306
ough	-1307
ather	-1308
under	-1309
▁ja	-1310
▁pur	-1311
omb	-1312
rim	-1313
▁mat	-1314
ental	-1315
abi	-1316
abil	-1317
jec	-1318
▁ic	-1319
work	-1320
▁men	-1321
▁pin	-1322
oned	-1323
rate	-1324
▁exp	-1325
▁unex	-1326
np	-1327
cor	-1328
ix	-1329
rod	-1330
▁dia	-1331
fin	-1332
hea	-1333
obia	-1334
nk	-1335
aly	-1336
▁gen	-1337
▁val	-1338
rh	-1339
hear	-1340
wing	-1341
ced	-1342
cre	-1343
ead	-1344
comp	-1345
▁amb	-1346
bil	-1347
reg	-1348
omat	-1349
▁tal	-1350
elf	-1351
vil	-1352
▁mas	-1353
▁meg	-1354
chy	-1355
eme	-1356
ants	-1357
▁hum	-1358
ws	-1359
lex	-1360
mal	-1361
tre	-1362
ami	-1363
oted	-1364
▁neu	-1365
▁pul	-1366
▁sim	-1367
gly	-1368
hen	-1369
▁av	-1370
ches	-1371
▁med	-1372
▁vic	-1373
▁multi	-1374
bit	-1375
▁ped	-1376
▁sec	-1377
▁sun	-1378
nis	-1379
odi	-1380
line	-1381
fr	-1382
ones	-1383
▁den	-1384
▁thre	-1385
ding	-1386
▁emp	-1387
▁amph	-1388
tem	-1389
ages	-1390
▁war	-1391
ately	-1392
war	-1393
isms	-1394
ellow	-1395
hs	-1396
adi	-1397
omi	-1398
▁char	-1399
dra	-1400
oci	-1401
icul	-1402
▁noncon	-1403
hol	-1404
▁ci	-1405
▁wood	-1406
ils	-1407
sta	-1408
tian	-1409
orous	-1410
▁cross	-1411
asm	-1412
cur	-1413
ators	-1414
ico	-1415
▁ki	-1416
otyp	-1417
aps	-1418
char	-1419
cher	-1420
wort	-1421
pho	-1422
▁blo	-1423
▁hel	-1424
▁pla	-1425
hes	-1426
izer	-1427
rus	-1428
ping	-1429
umm	-1430
▁od	-1431
emia	-1432
onia	-1433
ancy	-1434
▁fil	-1435
▁ven	-1436
bin	-1437
nter	-1438
▁far	-1439
▁tor	-1440
ified	-1441
elling	-1442
▁sac	-1443
add	-1444
nte	-1445
flow	-1446
▁cos	-1447
ister	-1448
ude	-1449
ider	-1450
ural	-1451
▁der	-1452
▁ung	-1453
aring	-1454
▁unde	-1455
enn	-1456
▁blu	-1457
▁clo	-1458
▁ger	-1459
ologic	-1460
ads	-1461
des	-1462
ids	-1463
oses	-1464
▁hor	-1465
▁nonp	-1466
▁pent	-1467
eng	-1468
zer	-1469
▁orth	-1470
iu	-1471
eman	-1472
odon	-1473
▁aff	-1474
atter	-1475
fulness	-1476
oge	-1477
unk	-1478
enes	-1479
uper	-1480
▁bac	-1481
▁psych	-1482
osa	-1483
▁dog	-1484
bal	-1485
oun	-1486
▁oc	-1487
▁pas	-1488
ju	-1489
atively	-1490
nde	-1491
▁os	-1492
opod	-1493
agg	-1494
yst	-1495
rian	-1496
opath	-1497
last	-1498
oral	-1499
▁air	-1500
elled	-1501
▁wind	-1502
ham	-1503
▁top	-1504
▁unin	-1505
han	-1506
rol	-1507
rup	-1508
uti	-1509
▁sin	-1510
rep	-1511
ents	-1512
▁aer	-1513
▁ren	-1514
▁sph	-1515
▁wel	-1516
bro	-1517
lem	-1518
lis	-1519
occ	-1520
oto	-1521
arth	-1522
aved	-1523
ired	-1524
▁chi	-1525
erg	-1526
vin	-1527
teri	-1528
headed	-1529
▁az	-1530
▁doub	-1531
lim	-1532
ther	-1533
▁off	-1534
▁pic	-1535
astic	-1536
esp	-1537
ifi	-1538
tan	-1539
▁pot	-1540
▁sor	-1541
lm	-1542
alli	-1543
▁exc	-1544
▁cent	-1545
▁eth	-1546
▁rem	-1547
▁rub	-1548
▁quasi	-1549
iferous	-1550
ado	-1551
urn	-1552
▁gi	-1553
▁ur	-1554
ening	-1555
lig	-1556
ught	-1557
▁pra	-1558
▁qua	-1559
▁str	-1560
board	-1561
▁quad	-1562
zation	-1563
alm	-1564
nat	-1565
oti	-1566
stic	-1567
stra	-1568
▁bor	-1569
obi	-1570
sin	-1571
▁ju	-1572
▁det	-1573
ometric	-1574
aries	-1575
dae	-1576
win	-1577
cs	-1578
oz	-1579
gin	-1580
eled	-1581
▁radi	-1582
▁extra	-1583
rv	-1584
rob	-1585
▁je	-1586
aged	-1587
hand	-1588
plic	-1589
▁cla	-1590
▁div	-1591
ishness	-1592
lee	-1593
qui	-1594
ser	-1595
inded	-1596
hum	-1597
key	-1598
lea	-1599
pin	-1600
ments	-1601
otomy	-1602
▁bul	-1603
lip	-1604
ney	-1605
▁hex	-1606
▁lac	-1607
▁high	-1608
▁prec	-1609
emic	-1610
▁fore	-1611
▁nonc	-1612
agi	-1613
emo	-1614
ety	-1615
tom	-1616
chan	-1617
antly	-1618
▁quin	-1619
fs	-1620
ocra	-1621
vely	-1622
▁app	-1623
je	-1624
eed	-1625
ols	-1626
zes	-1627
▁flo	-1628
tc	-1629
arb	-1630
ibl	-1631
hin	-1632
oric	-1633
nv	-1634
sw	-1635
ened	-1636
arn	-1637
oca	-1638
sol	-1639
▁prop	-1640
ja	-1641
eti	-1642
rou	-1643
aded	-1644
▁smo	-1645
ranch	-1646
right	-1647
▁antic	-1648
cra	-1649
tig	-1650
aker	-1651
▁lab	-1652
rf	-1653
yth	-1654
ench	-1655
olic	-1656
rist	-1657
▁une	-1658
▁pers	-1659
esi	-1660
isi	-1661
lac	-1662
leb	-1663
rad	-1664
iser	-1665
omic	-1666
▁dim	-1667
▁low	-1668
alize	-1669
ilo	-1670
ono	-1671
sto	-1672
itor	-1673
ece	-1674
▁reb	-1675
▁ret	-1676
jud	-1677
idal	-1678
▁ing	-1679
ingness	-1680
ographic	-1681
gia	-1682
ogr	-1683
▁mc	-1684
▁beg	-1685
▁gas	-1686
eco	-1687
eno	-1688
lie	-1689
elic	-1690
rost	-1691
▁ele	-1692
▁tele	-1693
uli	-1694
▁lib	-1695
ively	-1696
▁black	-1697
yb	-1698
ued	-1699
otrop	-1700
ek	-1701
yo	-1702
ean	-1703
lob	-1704
van	-1705
▁fir	-1706
▁dist	-1707
bility	-1708
unn	-1709
vid	-1710
ared	-1711
etal	-1712
tics	-1713
▁cri	-1714
opter	-1715
▁sulph	-1716
▁supers	-1717
hl	-1718
ces	-1719
ogra	-1720
omin	-1721
▁sar	-1722
ration	-1723
nia	-1724
orth	-1725
ishly	-1726
ogene	-1727
▁conf	-1728
ko	-1729
omp	-1730
rif	-1731
neum	-1732
▁unst	-1733
urb	-1734
ises	-1735
ape	-1736
ito	-1737
emin	-1738
▁disc	-1739
▁land	-1740
cat	-1741
nth	-1742
▁hyd	-1743
▁rev	-1744
▁swe	-1745
lik	-1746
rea	-1747
omer	-1748
▁ham	-1749
ester	-1750
eak	-1751
imp	-1752
lier	-1753
▁sta	-1754
making	-1755
cut	-1756
din	-1757
lla	-1758
▁lam	-1759
▁sing	-1760
mas	-1761
ody	-1762
sts	-1763
▁dy	-1764
emon	-1765
oper	-1766
▁san	-1767
alist	-1768
osity	-1769
▁nonre	-1770
cle	-1771
nch	-1772
▁by	-1773
ards	-1774
▁cul	-1775
▁hea	-1776
▁rein	-1777
oot	-1778
pid	-1779
▁fin	-1780
▁pel	-1781
▁recon	-1782
ime	-1783
▁gy	-1784
▁bon	-1785
▁lar	-1786
▁ultra	-1787
xy	-1788
bel	-1789
oof	-1790
pic	-1791
▁unr	-1792
▁wal	-1793
xt	-1794
uct	-1795
▁eff	-1796
▁whe	-1797
ophil	-1798
tiveness	-1799
aco	-1800
gle	-1801
ilt	-1802
phi	-1803
▁cab	-1804
loc	-1805
lot	-1806
tly	-1807
inae	-1808
mati	-1809
omen	-1810
▁tel	-1811
ogenic	-1812
▁water	-1813
rew	-1814
iner	-1815
lam	-1816
oon	-1817
tick	-1818
uric	-1819
utin	-1820
ogram	-1821
▁gold	-1822
ession	-1823
asc	-1824
chn	-1825
▁act	-1826
ike	-1827
pec	-1828
▁il	-1829
fied	-1830
▁coc	-1831
▁fra	-1832
▁nit	-1833
nb	-1834
sn	-1835
tw	-1836
ife	-1837
▁suc	-1838
istically	-1839
atri	-1840
▁oct	-1841
aryng	-1842
cro	-1843
tle	-1844
▁bri	-1845
illed	-1846
hm	-1847
ogy	-1848
alism	-1849
ander	-1850
▁intra	-1851
pan	-1852
tif	-1853
▁sep	-1854
elike	-1855
itter	-1856
maker	-1857
ux	-1858
mel	-1859
nos	-1860
wal	-1861
▁fib	-1862
rect	-1863
ures	-1864
▁nonf	-1865
▁plat	-1866
loid	-1867
otom	-1868
phth	-1869
thes	-1870
ition	-1871
ution	-1872
▁hard	-1873
▁chlor	-1874
ulation	-1875
etr	-1876
los	-1877
isti	-1878
phon	-1879
▁bow	-1880
▁gly	-1881
▁nar	-1882
▁sof	-1883
▁gast	-1884
▁unsp	-1885
▁circum	-1886
▁ko	-1887
▁cot	-1888
▁fur	-1889
lp	-1890
ada	-1891
mor	-1892
asis	-1893
▁dic	-1894
▁fac	-1895
▁lin	-1896
▁peri	-1897
▁sand	-1898
aro	-1899
eca	-1900
shi	-1901
uls	-1902
athe	-1903
▁asc	-1904
▁bea	-1905
▁lip	-1906
▁win	-1907
▁full	-1908
hearted	-1909
cti	-1910
hil	-1911
▁ot	-1912
othe	-1913
ream	-1914
ucle	-1915
▁fran	-1916
▁rest	-1917
eto	-1918
hem	-1919
nin	-1920
▁log	-1921
▁sam	-1922
esses	-1923
shaped	-1924
ays	-1925
een	-1926
oms	-1927
▁new	-1928
▁ros	-1929
▁wil	-1930
▁disp	-1931
▁inte	-1932
mph	-1933
▁ker	-1934
ament	-1935
▁palae	-1936
lc	-1937
erd	-1938
ota	-1939
xes	-1940
▁fla	-1941
ished	-1942
▁unpro	-1943
lia	-1944
oco	-1945
uts	-1946
chin	-1947
comm	-1948
ifer	-1949
tier	-1950
▁tin	-1951
▁unl	-1952
▁diss	-1953
oscope	-1954
dri	-1955
iac	-1956
opp	-1957
uch	-1958
agin	-1959
tish	-1960
▁inv	-1961
▁tem	-1962
faced	-1963
▁form	-1964
omo	-1965
alis	-1966
omed	-1967
▁bab	-1968
▁ban	-1969
berry	-1970
uring	-1971
▁unsh	-1972
▁chrom	-1973
ago	-1974
ford	-1975
olar	-1976
pres	-1977
▁leg	-1978
vy	-1979
opy	-1980
roof	-1981
▁ful	-1982
▁mad	-1983
▁sab	-1984
▁tam	-1985
elo	-1986
udd	-1987
ynam	-1988
▁gri	-1989
ested	-1990
lessness	-1991
ila	-1992
oro	-1993
phe	-1994
ume	-1995
ison	-1996
pped	-1997
▁asp	-1998
▁unv	-1999
house	-2000
▁comm	-2001
nm	-2002
gon	-2003
hic	-2004
ima	-2005
osc	-2006
esti	-2007
ulph	-2008
▁sap	-2009
▁tap	-2010
ended	-2011
escent	-2012
tte	-2013
▁alb	-2014
▁epi	-2015
▁pun	-2016
▁conc	-2017
uf	-2018
ugg	-2019
ury	-2020
lity	-2021
ading	-2022
iling	-2023
iting	-2024
▁pros	-2025
nh	-2026
wl	-2027
nit	-2028
orb	-2029
tch	-2030
top	-2031
wit	-2032
ians	-2033
inic	-2034
ower	-2035
▁deb	-2036
▁dig	-2037
▁mod	-2038
▁unco	-2039
zy	-2040
yll	-2041
▁fri	-2042
▁sex	-2043
utter	-2044
▁gran	-2045
▁plan	-2046
gic	-2047
tar	-2048
ubb	-2049
ales	-2050
atis	-2051
▁spi	-2052
light	-2053
ection	-2054
▁pseudo	-2055
nr	-2056
yi	-2057
dis	-2058
irs	-2059
rum	-2060
▁bet	-2061
▁som	-2062
ophag	-2063
inf	-2064
rch	-2065
ril	-2066
ype	-2067
ardi	-2068
irit	-2069
▁pig	-2070
▁sto	-2071
aking	-2072
field	-2073
eat	-2074
udi	-2075
usc	-2076
▁vo	-2077
tter	-2078
agu	-2079
opa	-2080
▁ach	-2081
▁mol	-2082
idd	-2083
urt	-2084
▁ey	-2085
sive	-2086
▁bib	-2087
▁vir	-2088
ances	-2089
ining	-2090
▁nonex	-2091
dg	-2092
utt	-2093
▁yo	-2094
lers	-2095
phil	-2096
tran	-2097
▁una	-2098
▁cock	-2099
▁head	-2100
▁incon	-2101
ket	-2102
mia	-2103
uter	-2104
▁lit	-2105
ulated	-2106
equ	-2107
oste	-2108
▁neg	-2109
alled	-2110
inate	-2111
nl	-2112
eas	-2113
orp	-2114
wer	-2115
▁tab	-2116
ential	-2117
alo	-2118
kes	-2119
pon	-2120
yer	-2121
emat	-2122
matic	-2123
▁corn	-2124
▁ther	-2125
▁after	-2126
bleness	-2127
▁precon	-2128
dal	-2129
don	-2130
pot	-2131
rys	-2132
▁est	-2133
_______________	-2134
gro	-2135
usi	-2136
look	-2137
port	-2138
tail	-2139
▁bec	-2140
▁six	-2141
▁uni	-2142
dly	-2143
irt	-2144
roll	-2145
tric	-2146
▁aph	-2147
▁cod	-2148
▁dev	-2149
▁dol	-2150
▁god	-2151
▁sha	-2152
struc	-2153
▁electro	-2154
atu	-2155
sly	-2156
lies	-2157
▁gon	-2158
▁hep	-2159
▁lap	-2160
rical	-2161
▁tetra	-2162
vic	-2163
aden	-2164
anch	-2165
ocal	-2166
▁unn	-2167
iveness	-2168
hib	-2169
▁eg	-2170
▁ble	-2171
ought	-2172
▁therm	-2173
ede	-2174
tha	-2175
ener	-2176
ores	-2177
▁dor	-2178
▁kin	-2179
▁sho	-2180
graph	-2181
inted	-2182
▁cont	-2183
▁whit	-2184
opo	-2185
angu	-2186
asti	-2187
▁bat	-2188
▁dow	-2189
▁pod	-2190
amine	-2191
orial	-2192
ership	-2193
ification	-2194
arr	-2195
lus	-2196
wed	-2197
tist	-2198
tral	-2199
▁not	-2200
▁vis	-2201
eling	-2202
ences	-2203
enter	-2204
▁cycl	-2205
▁rock	-2206
▁subs	-2207
acy	-2208
ady	-2209
iza	-2210
nder	-2211
roid	-2212
▁sna	-2213
bound	-2214
woman	-2215
▁mill	-2216
▁thor	-2217
dn	-2218
lum	-2219
org	-2220
▁dam	-2221
▁fal	-2222
ira	-2223
▁aw	-2224
▁om	-2225
alle	-2226
lock	-2227
tory	-2228
▁cow	-2229
▁pip	-2230
▁sle	-2231
▁sum	-2232
stone	-2233
▁lith	-2234
▁pant	-2235
ologically	-2236
xe	-2237
igg	-2238
olat	-2239
tite	-2240
uted	-2241
▁enc	-2242
▁gam	-2243
▁imb	-2244
▁pil	-2245
inger	-2246
▁snow	-2247
▁spin	-2248
cephal	-2249
isation	-2250
bon	-2251
box	-2252
gre	-2253
pet	-2254
▁us	-2255
anes	-2256
ilic	-2257
ound	-2258
▁amp	-2259
▁aqu	-2260
▁cho	-2261
▁ect	-2262
▁jac	-2263
▁band	-2264
▁fire	-2265
ectomy	-2266
cus	-2267
enz	-2268
pla	-2269
cept	-2270
over	-2271
▁cel	-2272
▁luc	-2273
▁pop	-2274
liness	-2275
del	-2276
eci	-2277
hel	-2278
▁ax	-2279
emen	-2280
otic	-2281
tile	-2282
▁cli	-2283
▁wit	-2284
tedly	-2285
▁bron	-2286
▁phen	-2287
▁pter	-2288
▁white	-2289
otherap	-2290
lv	-2291
dia	-2292
une	-2293
▁dar	-2294
lk	-2295
ulf	-2296
ups	-2297
▁ann	-2298
▁four	-2299
ool	-2300
rth	-2301
onym	-2302
uria	-2303
▁sco	-2304
▁vit	-2305
ented	-2306
onian	-2307
▁jack	-2308
ophobia	-2309
lab	-2310
onn	-2311
rab	-2312
▁nu	-2313
band	-2314
bled	-2315
eder	-2316
eler	-2317
▁nec	-2318
▁chal	-2319
▁cran	-2320
▁semic	-2321
▁contra	-2322
nw	-2323
ict	-2324
isa	-2325
rer	-2326
▁ae	-2327
etic	-2328
hous	-2329
▁bla	-2330
▁cac	-2331
▁ich	-2332
▁lat	-2333
▁thy	-2334
▁umb	-2335
▁prof	-2336
arl	-2337
mul	-2338
rick	-2339
rong	-2340
tious	-2341
amo	-2342
pol	-2343
sse	-2344
ject	-2345
rite	-2346
▁tow	-2347
anism	-2348
avi	-2349
agn	-2350
bri	-2351
hon	-2352
llo	-2353
oso	-2354
ruc	-2355
zen	-2356
aste	-2357
ient	-2358
rant	-2359
▁fle	-2360
▁nor	-2361
tible	-2362
▁unders	-2363
hn	-2364
erb	-2365
berg	-2366
oped	-2367
rial	-2368
▁cad	-2369
▁oxy	-2370
▁ure	-2371
cally	-2372
▁derm	-2373
tm	-2374
ech	-2375
rem	-2376
uma	-2377
▁it	-2378
rome	-2379
▁bol	-2380
▁gla	-2381
ocarp	-2382
rolog	-2383
tered	-2384
▁gall	-2385
▁iron	-2386
▁star	-2387
ocephal	-2388
▁yellow	-2389
opl	-2390
ork	-2391
aled	-2392
worm	-2393
▁arg	-2394
▁ash	-2395
▁rer	-2396
▁scr	-2397
▁down	-2398
▁scar	-2399
ometry	-2400
▁semip	-2401
ibility	-2402
irm	-2403
odo	-2404
ilit	-2405
phen	-2406
▁ost	-2407
▁sus	-2408
ching	-2409
fishes	-2410
veness	-2411
ffe	-2412
ift	-2413
ipe	-2414
vet	-2415
▁glo	-2416
vered	-2417
▁prer	-2418
lb	-2419
uv	-2420
alt	-2421
gal	-2422
nta	-2423
pit	-2424
▁arc	-2425
▁bis	-2426
▁bus	-2427
▁esc	-2428
▁kar	-2429
▁thr	-2430
dered	-2431
olith	-2432
ospor	-2433
▁cath	-2434
▁oste	-2435
kl	-2436
bus	-2437
ngs	-2438
ball	-2439
late	-2440
tern	-2441
uous	-2442
▁gun	-2443
▁mur	-2444
tific	-2445
▁acet	-2446
▁irre	-2447
▁quar	-2448
leaved	-2449
cap	-2450
ader	-2451
ogam	-2452
▁sen	-2453
ermin	-2454
iment	-2455
▁ball	-2456
▁bull	-2457
▁leuc	-2458
▁mist	-2459
kh	-2460
any	-2461
erf	-2462
ager	-2463
anic	-2464
ysis	-2465
▁mot	-2466
▁pep	-2467
▁pon	-2468
▁pneum	-2469
ien	-2470
oul	-2471
sia	-2472
ades	-2473
educ	-2474
ract	-2475
▁dun	-2476
ulous	-2477
▁pale	-2478
ifying	-2479
elin	-2480
pect	-2481
▁big	-2482
▁loc	-2483
▁qui	-2484
▁rel	-2485
▁deep	-2486
▁trich	-2487
sb	-2488
ills	-2489
pers	-2490
rest	-2491
sing	-2492
▁lob	-2493
▁pit	-2494
▁cand	-2495
▁spec	-2496
▁twice	-2497
apt	-2498
ein	-2499
oin	-2500
sen	-2501
till	-2502
ulat	-2503
unct	-2504
gener	-2505
▁mand	-2506
try	-2507
xed	-2508
hole	-2509
ival	-2510
odes	-2511
oney	-2512
quin	-2513
urch	-2514
▁cut	-2515
▁lan	-2516
▁tol	-2517
▁neph	-2518
▁unim	-2519
▁blood	-2520
▁overd	-2521
ray	-2522
see	-2523
thi	-2524
ths	-2525
▁gn	-2526
osed	-2527
tize	-2528
▁ath	-2529
▁bil	-2530
▁fol	-2531
▁tom	-2532
ature	-2533
odont	-2534
▁supe	-2535
bul	-2536
hag	-2537
tee	-2538
tiz	-2539
vie	-2540
ych	-2541
aced	-2542
aric	-2543
rine	-2544
▁dry	-2545
▁kil	-2546
▁thi	-2547
actic	-2548
hydro	-2549
boy	-2550
keep	-2551
kers	-2552
ocer	-2553
uber	-2554
▁ana	-2555
▁bot	-2556
▁don	-2557
▁jud	-2558
▁tox	-2559
▁vul	-2560
usion	-2561
▁phyt	-2562
▁spor	-2563
ativeness	-2564
uo	-2565
hot	-2566
una	-2567
abit	-2568
ases	-2569
ibly	-2570
well	-2571
▁dri	-2572
▁spl	-2573
▁wid	-2574
tidae	-2575
▁proc	-2576
tedness	-2577
ji	-2578
ake	-2579
ams	-2580
eph	-2581
opt	-2582
elia	-2583
oner	-2584
ouch	-2585
tica	-2586
▁bir	-2587
▁mut	-2588
actyl	-2589
▁card	-2590
▁ever	-2591
▁hist	-2592
▁rough	-2593
err	-2594
nge	-2595
onc	-2596
ssi	-2597
yle	-2598
▁ak	-2599
achy	-2600
▁ton	-2601
bol	-2602
eer	-2603
ivi	-2604
ows	-2605
rio	-2606
sec	-2607
uas	-2608
alia	-2609
bird	-2610
▁cav	-2611
▁mos	-2612
▁pho	-2613
▁rat	-2614
▁sid	-2615
▁tim	-2616
▁vas	-2617
▁vel	-2618
ivers	-2619
rable	-2620
inesses	-2621
istical	-2622
ave	-2623
uit	-2624
▁ya	-2625
alin	-2626
etta	-2627
hing	-2628
ngly	-2629
stri	-2630
toid	-2631
umer	-2632
▁sat	-2633
▁sea	-2634
ferous	-2635
aca	-2636
ido	-2637
nec	-2638
sci	-2639
▁kh	-2640
amed	-2641
serv	-2642
▁alk	-2643
▁arm	-2644
▁cou	-2645
▁sav	-2646
onger	-2647
▁pyro	-2648
tb	-2649
but	-2650
itz	-2651
ndi	-2652
pul	-2653
xis	-2654
lets	-2655
sses	-2656
▁fro	-2657
▁law	-2658
▁put	-2659
ector	-2660
ethyl	-2661
mouth	-2662
umber	-2663
lessly	-2664
elt	-2665
izz	-2666
nts	-2667
agon	-2668
arin	-2669
ires	-2670
olit	-2671
root	-2672
▁bio	-2673
▁hen	-2674
▁hot	-2675
▁pom	-2676
▁sla	-2677
▁vent	-2678
itation	-2679
▁nonpro	-2680
atically	-2681
cri	-2682
iph	-2683
nex	-2684
oda	-2685
▁ze	-2686
leaf	-2687
omas	-2688
▁occ	-2689
ologi	-2690
▁inex	-2691
▁intr	-2692
▁port	-2693
▁unad	-2694
▁green	-2695
colored	-2696
get	-2697
ove	-2698
ror	-2699
ided	-2700
opic	-2701
read	-2702
▁cup	-2703
▁hur	-2704
▁wat	-2705
▁wol	-2706
▁cond	-2707
▁sulf	-2708
atingly	-2709
ban	-2710
flu	-2711
sel	-2712
tat	-2713
alog	-2714
ands	-2715
eyed	-2716
foot	-2717
▁bou	-2718
▁ext	-2719
▁tan	-2720
▁ves	-2721
liest	-2722
oring	-2723
wards	-2724
▁nonv	-2725
▁sign	-2726
▁retro	-2727
▁short	-2728
gm	-2729
fed	-2730
udo	-2731
▁gh	-2732
dale	-2733
enta	-2734
▁fan	-2735
▁kal	-2736
▁sli	-2737
▁van	-2738
atric	-2739
elect	-2740
oidal	-2741
olite	-2742
▁good	-2743
▁hipp	-2744
▁unch	-2745
ishing	-2746
minded	-2747
encephal	-2748
nar	-2749
oty	-2750
oxy	-2751
pri	-2752
uro	-2753
eous	-2754
oles	-2755
rink	-2756
tili	-2757
urus	-2758
vert	-2759
▁may	-2760
▁ram	-2761
▁rhe	-2762
▁slo	-2763
asted	-2764
otted	-2765
▁foot	-2766
▁unsc	-2767
abb	-2768
izi	-2769
phor	-2770
rain	-2771
▁lig	-2772
arily	-2773
▁chor	-2774
▁unse	-2775
flower	-2776
illing	-2777
▁uncom	-2778
cen	-2779
jug	-2780
nne	-2781
enth	-2782
imet	-2783
lled	-2784
omal	-2785
owed	-2786
sian	-2787
▁dil	-2788
▁gel	-2789
▁lun	-2790
▁ran	-2791
oderm	-2792
▁chem	-2793
▁fron	-2794
ending	-2795
ianism	-2796
▁anthrop	-2797
dec	-2798
qua	-2799
acks	-2800
born	-2801
ingu	-2802
wind	-2803
▁cin	-2804
▁ante	-2805
▁camp	-2806
▁enter	-2807
▁organ	-2808
ination	-2809
tz	-2810
hyd	-2811
ief	-2812
rre	-2813
▁buc	-2814
▁dro	-2815
itive	-2816
iving	-2817
▁aden	-2818
ranchi	-2819
▁crypt	-2820
gam	-2821
ngl	-2822
uni	-2823
bles	-2824
▁bee	-2825
▁ear	-2826
▁iso	-2827
rophy	-2828
▁fish	-2829
▁hous	-2830
atical	-2831
▁night	-2832
▁unper	-2833
escence	-2834
lon	-2835
thr	-2836
aris	-2837
ased	-2838
eted	-2839
pher	-2840
quis	-2841
spir	-2842
ulin	-2843
▁muc	-2844
▁omn	-2845
▁ric	-2846
▁sig	-2847
▁xen	-2848
oblast	-2849
xp	-2850
upe	-2851
▁ts	-2852
ells	-2853
ming	-2854
olin	-2855
phic	-2856
rang	-2857
rich	-2858
scri	-2859
ture	-2860
▁dys	-2861
▁gyn	-2862
▁hon	-2863
▁rea	-2864
▁ske	-2865
gress	-2866
osoph	-2867
▁prep	-2868
▁scal	-2869
▁stere	-2870
lg	-2871
ahs	-2872
air	-2873
ips	-2874
nsi	-2875
spi	-2876
yan	-2877
▁ye	-2878
asia	-2879
chem	-2880
etra	-2881
fold	-2882
hold	-2883
ried	-2884
▁hed	-2885
▁spe	-2886
▁haem	-2887
▁pass	-2888
▁read	-2889
▁round	-2890
▁thick	-2891
rw	-2892
asp	-2893
mod	-2894
ogg	-2895
sco	-2896
uta	-2897
idia	-2898
idin	-2899
▁kat	-2900
▁nos	-2901
▁rad	-2902
▁rus	-2903
▁sym	-2904
▁vin	-2905
ostom	-2906
rosis	-2907
▁pick	-2908
▁sens	-2909
itable	-2910
▁neuro	-2911
▁nonde	-2912
▁scler	-2913
cel	-2914
dep	-2915
ues	-2916
voc	-2917
ares	-2918
boat	-2919
ulli	-2920
▁bic	-2921
▁jer	-2922
▁son	-2923
▁typ	-2924
ocele	-2925
▁bath	-2926
▁epic	-2927
▁phys	-2928
▁pref	-2929
ateness	-2930
xa	-2931
acu	-2932
gor	-2933
imi	-2934
mes	-2935
nam	-2936
nas	-2937
oke	-2938
pli	-2939
pto	-2940
zon	-2941
▁sq	-2942
boro	-2943
▁cub	-2944
▁han	-2945
▁viv	-2946
▁chap	-2947
▁thro	-2948
mental	-2949
yw	-2950
cet	-2951
clo	-2952
eff	-2953
erp	-2954
ylo	-2955
▁wr	-2956
agog	-2957
radi	-2958
ways	-2959
▁doc	-2960
▁lif	-2961
▁vap	-2962
ticul	-2963
▁gent	-2964
▁sperm	-2965
aga	-2966
imb	-2967
osh	-2968
sal	-2969
uto	-2970
ogon	-2971
onom	-2972
▁haw	-2973
▁pup	-2974
▁rud	-2975
organ	-2976
uting	-2977
ements	-2978
▁small	-2979
▁silver	-2980
atr	-2981
awn	-2982
sha	-2983
oxid	-2984
ques	-2985
▁bit	-2986
▁fun	-2987
▁nas	-2988
▁shi	-2989
aling	-2990
eller	-2991
ident	-2992
ights	-2993
inous	-2994
thesia	-2995
▁broad	-2996
eds	-2997
hee	-2998
isk	-2999
vit	-3000
preh	-3001
thro	-3002
▁day	-3003
▁plu	-3004
▁spo	-3005
arded	-3006
ocent	-3007
▁best	-3008
footed	-3009
▁xanth	-3010
looking	-3011
ncy	-3012
tho	-3013
agne	-3014
ania	-3015
bear	-3016
down	-3017
iber	-3018
laim	-3019
smen	-3020
ston	-3021
▁aud	-3022
▁aus	-3023
▁gem	-3024
tiest	-3025
▁anis	-3026
▁benz	-3027
▁clin	-3028
▁coll	-3029
▁symp	-3030
alness	-3031
ogenesis	-3032
ige	-3033
nco	-3034
obe	-3035
ref	-3036
tos	-3037
tox	-3038
vey	-3039
agan	-3040
anda	-3041
ason	-3042
isco	-3043
plex	-3044
rack	-3045
spec	-3046
▁fly	-3047
▁fru	-3048
▁sad	-3049
▁sou	-3050
acter	-3051
rying	-3052
unter	-3053
▁mono	-3054
▁olig	-3055
▁stre	-3056
itting	-3057
ularly	-3058
▁nonin	-3059
▁double	-3060
tf	-3061
tp	-3062
cip	-3063
imo	-3064
owl	-3065
aked	-3066
iums	-3067
odic	-3068
oled	-3069
race	-3070
▁did	-3071
▁fus	-3072
▁lor	-3073
▁work	-3074
olored	-3075
▁heart	-3076
aba	-3077
opi	-3078
orc	-3079
rai	-3080
she	-3081
abol	-3082
ends	-3083
vill	-3084
▁abs	-3085
▁bob	-3086
▁dou	-3087
▁fat	-3088
▁len	-3089
▁mud	-3090
▁mun	-3091
arist	-3092
ioned	-3093
▁book	-3094
master	-3095
olitic	-3096
ophyll	-3097
▁chond	-3098
ographer	-3099
fol	-3100
iat	-3101
nom	-3102
ogi	-3103
pat	-3104
run	-3105
sil	-3106
▁ai	-3107
aliz	-3108
ders	-3109
ests	-3110
fall	-3111
issi	-3112
ocks	-3113
oter	-3114
time	-3115
usly	-3116
▁bag	-3117
▁bun	-3118
▁cyn	-3119
▁eng	-3120
▁pec	-3121
▁rum	-3122
bling	-3123
▁dish	-3124
rograph	-3125
ez	-3126
aka	-3127
blo	-3128
law	-3129
mos	-3130
rav	-3131
riv	-3132
ubl	-3133
hard	-3134
ioid	-3135
▁gor	-3136
▁ide	-3137
▁nic	-3138
▁tum	-3139
idine	-3140
ocyte	-3141
oster	-3142
▁path	-3143
▁ring	-3144
▁overp	-3145
ava	-3146
dem	-3147
hoo	-3148
itu	-3149
nst	-3150
sey	-3151
tai	-3152
tel	-3153
vir	-3154
cess	-3155
fing	-3156
idly	-3157
oder	-3158
oria	-3159
rosc	-3160
trac	-3161
used	-3162
vern	-3163
▁dul	-3164
▁nin	-3165
▁sug	-3166
▁zyg	-3167
arium	-3168
lings	-3169
▁cann	-3170
▁prim	-3171
▁prob	-3172
▁imper	-3173
sf	-3174
cia	-3175
ibr	-3176
irl	-3177
set	-3178
sic	-3179
amic	-3180
edic	-3181
este	-3182
ipar	-3183
ligh	-3184
loss	-3185
mmed	-3186
otox	-3187
ryst	-3188
▁gol	-3189
▁hay	-3190
▁tax	-3191
dness	-3192
ially	-3193
▁bell	-3194
▁buck	-3195
▁heli	-3196
▁wool	-3197
asting	-3198
dition	-3199
▁cardi	-3200
▁phosph	-3201
lad	-3202
onf	-3203
rti	-3204
sie	-3205
yli	-3206
ante	-3207
emer	-3208
igen	-3209
illo	-3210
▁din	-3211
▁rid	-3212
▁sag	-3213
anger	-3214
angle	-3215
eting	-3216
otype	-3217
tract	-3218
▁cyan	-3219
oscopy	-3220
▁light	-3221
anthrop	-3222
aki	-3223
alk	-3224
cid	-3225
inu	-3226
lag	-3227
lep	-3228
pur	-3229
sio	-3230
emor	-3231
▁apo	-3232
▁att	-3233
▁fel	-3234
▁gig	-3235
▁oil	-3236
▁one	-3237
ional	-3238
olate	-3239
▁flor	-3240
▁indi	-3241
▁unth	-3242
encies	-3243
omania	-3244
▁actin	-3245
▁overf	-3246
cit	-3247
hop	-3248
iva	-3249
not	-3250
nse	-3251
nut	-3252
ocr	-3253
pod	-3254
rov	-3255
spe	-3256
aves	-3257
elly	-3258
pled	-3259
word	-3260
▁bru	-3261
▁dod	-3262
▁idi	-3263
class	-3264
ectom	-3265
essed	-3266
▁chin	-3267
▁flat	-3268
▁moon	-3269
▁outs	-3270
▁suff	-3271
▁tris	-3272
jus	-3273
ange	-3274
anim	-3275
astr	-3276
enni	-3277
nate	-3278
reen	-3279
▁fum	-3280
▁gab	-3281
▁mam	-3282
▁opp	-3283
▁run	-3284
▁sed	-3285
ellar	-3286
ender	-3287
eries	-3288
stand	-3289
using	-3290
▁brom	-3291
▁dial	-3292
▁preex	-3293
▁transp	-3294
df	-3295
ald	-3296
lif	-3297
lop	-3298
rse	-3299
list	-3300
wash	-3301
ylic	-3302
▁dre	-3303
▁orn	-3304
▁tru	-3305
agger	-3306
▁hier	-3307
▁plum	-3308
▁quick	-3309
▁semis	-3310
aya	-3311
bas	-3312
bat	-3313
cos	-3314
urr	-3315
yal	-3316
chis	-3317
ingl	-3318
plan	-3319
reat	-3320
roma	-3321
thal	-3322
▁bog	-3323
▁lad	-3324
▁spa	-3325
ishes	-3326
ophor	-3327
▁auto	-3328
▁reco	-3329
action	-3330
rowned	-3331
bic	-3332
lid	-3333
ois	-3334
tus	-3335
zar	-3336
opro	-3337
tery	-3338
▁bod	-3339
▁dan	-3340
▁hog	-3341
▁jan	-3342
▁vag	-3343
atism	-3344
ritic	-3345
worth	-3346
▁spir	-3347
ogenous	-3348
tn	-3349
fle	-3350
flo	-3351
liz	-3352
nem	-3353
oes	-3354
athy	-3355
ello	-3356
itic	-3357
lean	-3358
trop	-3359
urer	-3360
▁ken	-3361
▁lav	-3362
▁pea	-3363
eding	-3364
omata	-3365
onder	-3366
▁cord	-3367
▁hydr	-3368
▁nonm	-3369
▁undi	-3370
▁eryth	-3371
▁proto	-3372
▁repro	-3373
ogenetic	-3374
dm	-3375
iou	-3376
ius	-3377
olu	-3378
roo	-3379
sit	-3380
tas	-3381
wan	-3382
bert	-3383
call	-3384
cons	-3385
fuls	-3386
iden	-3387
nist	-3388
stem	-3389
then	-3390
unch	-3391
writ	-3392
▁cit	-3393
▁dup	-3394
▁gym	-3395
▁pha	-3396
▁sci	-3397
▁tun	-3398
asing	-3399
idium	-3400
lower	-3401
unded	-3402
▁anim	-3403
▁cant	-3404
▁cast	-3405
▁gang	-3406
▁phon	-3407
▁unpr	-3408
leness	-3409
▁grand	-3410
▁roman	-3411
▁sweet	-3412
db	-3413
aus	-3414
hro	-3415
ifo	-3416
rix	-3417
aean	-3418
hydr	-3419
kins	-3420
perm	-3421
▁bem	-3422
▁ess	-3423
▁hob	-3424
itate	-3425
▁cham	-3426
▁cong	-3427
▁fair	-3428
▁inde	-3429
▁plac	-3430
▁pret	-3431
▁rich	-3432
▁soul	-3433
▁unen	-3434
▁word	-3435
▁macro	-3436
▁milli	-3437
▁prein	-3438
xo	-3439
abs	-3440
nel	-3441
yph	-3442
ivil	-3443
lion	-3444
▁and	-3445
▁cog	-3446
▁ens	-3447
▁old	-3448
▁whi	-3449
aming	-3450
anced	-3451
athed	-3452
▁allo	-3453
▁para	-3454
lement	-3455
ognath	-3456
▁quasic	-3457
ographical	-3458
abe	-3459
adv	-3460
bow	-3461
cks	-3462
eek	-3463
rma	-3464
ubs	-3465
amer	-3466
bush	-3467
estr	-3468
lize	-3469
nite	-3470
odia	-3471
▁fig	-3472
▁var	-3473
aging	-3474
cloth	-3475
grass	-3476
ograp	-3477
posed	-3478
uther	-3479
▁stro	-3480
▁tail	-3481
▁bibli	-3482
nz	-3483
imm	-3484
ipl	-3485
oga	-3486
rri	-3487
yls	-3488
yne	-3489
▁iv	-3490
▁kr	-3491
acty	-3492
angi	-3493
quet	-3494
rach	-3495
rons	-3496
test	-3497
uded	-3498
unci	-3499
ynch	-3500
▁cyt	-3501
▁dea	-3502
▁eph	-3503
▁hag	-3504
▁soc	-3505
▁ups	-3506
artic	-3507
leman	-3508
▁angi	-3509
▁hair	-3510
▁past	-3511
▁perf	-3512
▁shar	-3513
lastic	-3514
tiness	-3515
▁stock	-3516
ulating	-3517
ationist	-3518
yf	-3519
apa	-3520
iev	-3521
owe	-3522
ppe	-3523
ulo	-3524
vig	-3525
acon	-3526
cope	-3527
ente	-3528
imer	-3529
opar	-3530
rati	-3531
▁cum	-3532
▁max	-3533
▁nob	-3534
▁pac	-3535
▁pad	-3536
armed	-3537
pered	-3538
sness	-3539
▁mass	-3540
▁spar	-3541
▁unap	-3542
alized	-3543
stanti	-3544
tivity	-3545
▁antip	-3546
▁hemat	-3547
▁lymph	-3548
▁cephal	-3549
acs	-3550
cas	-3551
▁ok	-3552
bred	-3553
horn	-3554
iced	-3555
oler	-3556
plac	-3557
tily	-3558
▁gib	-3559
▁hap	-3560
▁rot	-3561
▁tea	-3562
▁tit	-3563
▁tot	-3564
built	-3565
chrom	-3566
iding	-3567
stric	-3568
▁play	-3569
▁thir	-3570
▁uran	-3571
▁phyll	-3572
bod	-3573
cli	-3574
fts	-3575
mus	-3576
oub	-3577
riz	-3578
som	-3579
free	-3580
iles	-3581
inte	-3582
lant	-3583
opol	-3584
peri	-3585
quer	-3586
rope	-3587
tial	-3588
▁aug	-3589
▁nom	-3590
▁syl	-3591
▁was	-3592
ected	-3593
oidea	-3594
owing	-3595
unted	-3596
▁cass	-3597
▁cher	-3598
▁dich	-3599
bearing	-3600
ibleness	-3601
erl	-3602
fre	-3603
hyp	-3604
irc	-3605
nor	-3606
uld	-3607
▁ea	-3608
cing	-3609
hier	-3610
hist	-3611
iant	-3612
iler	-3613
ilia	-3614
imin	-3615
rize	-3616
stro	-3617
town	-3618
▁nav	-3619
▁sca	-3620
anded	-3621
ocked	-3622
pping	-3623
ublic	-3624
▁carb	-3625
▁open	-3626
▁reex	-3627
▁scri	-3628
▁stri	-3629
alc	-3630
asy	-3631
eud	-3632
kee	-3633
nac	-3634
nre	-3635
sch	-3636
adic	-3637
amen	-3638
bing	-3639
idic	-3640
mann	-3641
uled	-3642
▁dew	-3643
▁jus	-3644
▁nut	-3645
▁twi	-3646
etric	-3647
etter	-3648
onite	-3649
orate	-3650
ually	-3651
▁clar	-3652
▁reen	-3653
commun	-3654
izable	-3655
opathy	-3656
tailed	-3657
▁morph	-3658
▁smooth	-3659
awa	-3660
bes	-3661
hit	-3662
kle	-3663
lew	-3664
nee	-3665
odd	-3666
umi	-3667
zin	-3668
▁ku	-3669
aper	-3670
ibil	-3671
iste	-3672
rans	-3673
▁bos	-3674
▁gir	-3675
▁joh	-3676
▁pow	-3677
eline	-3678
kiest	-3679
ridae	-3680
rowed	-3681
▁cyst	-3682
▁dead	-3683
▁dism	-3684
▁epig	-3685
▁hell	-3686
▁phyl	-3687
▁vers	-3688
omancy	-3689
unting	-3690
▁splen	-3691
manship	-3692
omatous	-3693
▁ichthy	-3694
ln	-3695
nab	-3696
ntr	-3697
oft	-3698
pes	-3699
fast	-3700
rone	-3701
tent	-3702
tide	-3703
▁bad	-3704
▁cic	-3705
▁cru	-3706
▁kir	-3707
▁sau	-3708
▁saw	-3709
amide	-3710
chlor	-3711
idean	-3712
▁blow	-3713
▁bush	-3714
▁medi	-3715
▁sarc	-3716
▁wall	-3717
ostomy	-3718
▁undis	-3719
▁unres	-3720
▁transm	-3721
otherapy	-3722
ecu	-3723
hat	-3724
iro	-3725
lou	-3726
mot	-3727
now	-3728
oat	-3729
omm	-3730
raw	-3731
uin	-3732
burn	-3733
clus	-3734
esse	-3735
face	-3736
icks	-3737
pier	-3738
iffer	-3739
omati	-3740
rific	-3741
urate	-3742
▁conv	-3743
▁myth	-3744
▁untr	-3745
acious	-3746
▁earth	-3747
▁overc	-3748
▁schiz	-3749
▁spect	-3750
ask	-3751
die	-3752
eps	-3753
eur	-3754
tip	-3755
aken	-3756
akes	-3757
cial	-3758
econ	-3759
ecut	-3760
gram	-3761
iate	-3762
nism	-3763
oven	-3764
phag	-3765
▁dur	-3766
▁dus	-3767
▁heb	-3768
▁lov	-3769
▁osc	-3770
▁pay	-3771
▁sod	-3772
▁wax	-3773
allow	-3774
attle	-3775
icate	-3776
meter	-3777
rimin	-3778
scrip	-3779
tural	-3780
water	-3781
works	-3782
▁brid	-3783
▁horn	-3784
▁soci	-3785
▁tear	-3786
icular	-3787
▁selfs	-3788
▁gastro	-3789
wr	-3790
bac	-3791
his	-3792
lls	-3793
mak	-3794
roi	-3795
erer	-3796
erin	-3797
ocyt	-3798
stit	-3799
udes	-3800
weet	-3801
▁bef	-3802
▁gil	-3803
▁hus	-3804
▁myx	-3805
▁nan	-3806
▁oce	-3807
oline	-3808
▁bird	-3809
▁inst	-3810
▁meth	-3811
▁rhiz	-3812
▁tong	-3813
▁unac	-3814
▁chrys	-3815
▁death	-3816
▁intro	-3817
▁rever	-3818
berries	-3819
enesses	-3820
▁spirit	-3821
icalness	-3822
bir	-3823
cto	-3824
eve	-3825
icu	-3826
jac	-3827
lev	-3828
nto	-3829
tab	-3830
ycl	-3831
allo	-3832
aven	-3833
bler	-3834
eres	-3835
fron	-3836
ives	-3837
llab	-3838
opia	-3839
otes	-3840
prov	-3841
qual	-3842
rier	-3843
ross	-3844
tify	-3845
tors	-3846
▁iod	-3847
▁lag	-3848
▁lic	-3849
▁mir	-3850
antic	-3851
apper	-3852
table	-3853
▁arth	-3854
▁circ	-3855
▁drag	-3856
▁extr	-3857
▁flag	-3858
▁irid	-3859
▁mang	-3860
▁serv	-3861
illary	-3862
ophore	-3863
▁melan	-3864
ii	-3865
xc	-3866
cke	-3867
ego	-3868
ior	-3869
nda	-3870
nea	-3871
nie	-3872
otr	-3873
oug	-3874
vas	-3875
wro	-3876
dial	-3877
hyth	-3878
mark	-3879
omes	-3880
quit	-3881
rows	-3882
tifi	-3883
▁bin	-3884
▁nov	-3885
▁ree	-3886
anian	-3887
erson	-3888
lined	-3889
rated	-3890
stown	-3891
▁call	-3892
▁clos	-3893
▁king	-3894
▁lept	-3895
▁mach	-3896
ophyte	-3897
ticism	-3898
▁chron	-3899
▁supra	-3900
▁christ	-3901
dit	-3902
fra	-3903
noc	-3904
ods	-3905
pop	-3906
ssa	-3907
ube	-3908
chee	-3909
ices	-3910
osit	-3911
▁alg	-3912
▁aur	-3913
▁boo	-3914
▁kor	-3915
▁oph	-3916
▁wis	-3917
icity	-3918
ision	-3919
ither	-3920
▁prem	-3921
▁styl	-3922
▁west	-3923
formed	-3924
omatic	-3925
▁ophth	-3926
hw	-3927
aud	-3928
eep	-3929
fil	-3930
nob	-3931
toc	-3932
upp	-3933
anal	-3934
atom	-3935
cate	-3936
erat	-3937
ever	-3938
fire	-3939
lian	-3940
mind	-3941
omon	-3942
pond	-3943
tice	-3944
very	-3945
▁dex	-3946
▁fas	-3947
▁gob	-3948
▁how	-3949
▁pyr	-3950
▁ses	-3951
▁ski	-3952
▁uro	-3953
atist	-3954
enite	-3955
oning	-3956
othed	-3957
▁lang	-3958
▁line	-3959
▁mast	-3960
▁soft	-3961
▁trop	-3962
▁unob	-3963
ellate	-3964
inated	-3965
ocracy	-3966
tioned	-3967
▁disco	-3968
▁undec	-3969
cot	-3970
fur	-3971
lio	-3972
nsp	-3973
pti	-3974
▁kl	-3975
anne	-3976
brid	-3977
dier	-3978
dist	-3979
ense	-3980
esta	-3981
gent	-3982
jack	-3983
mber	-3984
opho	-3985
room	-3986
ulus	-3987
▁art	-3988
▁cyp	-3989
▁gut	-3990
▁hat	-3991
▁liv	-3992
▁mob	-3993
▁xyl	-3994
anged	-3995
▁cate	-3996
▁cost	-3997
▁unab	-3998
▁wire	-3999
▁overb	-4000
ologies	-4001
ags	-4002
eem	-4003
oil	-4004
orh	-4005
osm	-4006
tum	-4007
ache	-4008
dies	-4009
sted	-4010
▁cus	-4011
▁gru	-4012
▁irr	-4013
▁mah	-4014
▁nig	-4015
▁way	-4016
lysis	-4017
▁sept	-4018
▁with	-4019
ension	-4020
▁gloss	-4021
▁grass	-4022
▁horse	-4023
▁winter	-4024
abo	-4025
alf	-4026
bea	-4027
dam	-4028
ffi	-4029
gat	-4030
gee	-4031
hus	-4032
nan	-4033
nus	-4034
rae	-4035
rte	-4036
sid	-4037
illy	-4038
lite	-4039
odyn	-4040
ople	-4041
prop	-4042
rock	-4043
stru	-4044
ulae	-4045
umen	-4046
▁bug	-4047
▁fav	-4048
▁hip	-4049
▁ign	-4050
▁lon	-4051
▁tac	-4052
▁tob	-4053
ables	-4054
aters	-4055
gramm	-4056
ifies	-4057
▁home	-4058
odynam	-4059
▁fores	-4060
▁prote	-4061
otropic	-4062
ku	-4063
aid	-4064
ben	-4065
igu	-4066
ipa	-4067
sur	-4068
tol	-4069
▁ah	-4070
aire	-4071
ecti	-4072
here	-4073
inth	-4074
ioph	-4075
lear	-4076
ogly	-4077
resc	-4078
romy	-4079
some	-4080
wall	-4081
▁chr	-4082
▁fid	-4083
▁fou	-4084
▁fox	-4085
▁set	-4086
▁sno	-4087
onize	-4088
shire	-4089
ument	-4090
verti	-4091
▁angl	-4092
▁carp	-4093
▁cold	-4094
▁hors	-4095
▁pall	-4096
▁pand	-4097
▁slow	-4098
▁tang	-4099
▁thin	-4100
ighted	-4101
orship	-4102
▁andro	-4103
▁nonad	-4104
▁peric	-4105
alistic	-4106
▁spring	-4107
uz	-4108
dig	-4109
eel	-4110
fly	-4111
nol	-4112
oed	-4113
pas	-4114
rah	-4115
siv	-4116
var	-4117
wel	-4118
wis	-4119
▁dh	-4120
cler	-4121
ffer	-4122
isin	-4123
ithe	-4124
lain	-4125
logy	-4126
outs	-4127
phan	-4128
▁cen	-4129
▁fam	-4130
▁had	-4131
▁hoo	-4132
▁kol	-4133
▁lus	-4134
▁neb	-4135
▁sud	-4136
▁tut	-4137
idity	-4138
spect	-4139
▁chil	-4140
▁liqu	-4141
▁nona	-4142
▁oper	-4143
▁stat	-4144
▁trip	-4145
produc	-4146
▁fluor	-4147
▁megal	-4148
ication	-4149
▁ornith	-4150
eda	-4151
epi	-4152
haw	-4153
loy	-4154
tru	-4155
uca	-4156
▁ig	-4157
▁ky	-4158
acea	-4159
aler	-4160
cula	-4161
gier	-4162
rent	-4163
zine	-4164
▁bay	-4165
▁eup	-4166
▁fab	-4167
▁fli	-4168
▁lev	-4169
▁noc	-4170
▁obl	-4171
▁psy	-4172
▁reh	-4173
▁voc	-4174
atize	-4175
icker	-4176
isted	-4177
sible	-4178
▁desc	-4179
monger	-4180
rowing	-4181
▁cryst	-4182
izations	-4183
cea	-4184
dne	-4185
dos	-4186
ecr	-4187
ibi	-4188
niz	-4189
osy	-4190
ozo	-4191
pir	-4192
uer	-4193
uns	-4194
usa	-4195
whe	-4196
acet	-4197
aman	-4198
nize	-4199
orac	-4200
otin	-4201
rass	-4202
roch	-4203
▁jew	-4204
▁ket	-4205
▁ole	-4206
▁sky	-4207
algia	-4208
ction	-4209
iller	-4210
onate	-4211
onist	-4212
plate	-4213
▁chol	-4214
▁mamm	-4215
▁many	-4216
▁merc	-4217
▁none	-4218
▁sher	-4219
▁ston	-4220
▁temp	-4221
▁vill	-4222
▁wild	-4223
haired	-4224
▁physi	-4225
▁sharp	-4226
▁unpre	-4227
omorphic	-4228
▁thunder	-4229
aft	-4230
amy	-4231
eaf	-4232
eau	-4233
oba	-4234
pie	-4235
typ	-4236
uan	-4237
wee	-4238
▁zy	-4239
dium	-4240
itat	-4241
oids	-4242
osau	-4243
peti	-4244
ptic	-4245
udin	-4246
ulum	-4247
ware	-4248
▁ama	-4249
▁och	-4250
▁osm	-4251
acked	-4252
aving	-4253
istry	-4254
ories	-4255
▁anac	-4256
▁canc	-4257
▁misc	-4258
▁nonb	-4259
▁reli	-4260
▁tend	-4261
arious	-4262
etting	-4263
ocking	-4264
usness	-4265
▁nonco	-4266
▁pleas	-4267
▁sleep	-4268
▁unsub	-4269
▁selfcon	-4270
dv	-4271
ej	-4272
tg	-4273
aws	-4274
day	-4275
dow	-4276
eon	-4277
fis	-4278
hia	-4279
iga	-4280
kan	-4281
mir	-4282
mut	-4283
nop	-4284
oic	-4285
rne	-4286
uil	-4287
ulp	-4288
▁of	-4289
▁wy	-4290
iped	-4291
kish	-4292
otor	-4293
shed	-4294
▁dir	-4295
▁hun	-4296
▁kit	-4297
▁rag	-4298
▁sic	-4299
▁try	-4300
▁vac	-4301
▁xer	-4302
aline	-4303
oming	-4304
quent	-4305
▁dent	-4306
▁dipl	-4307
▁myel	-4308
▁palm	-4309
▁rhod	-4310
▁rose	-4311
▁trin	-4312
▁unmo	-4313
▁demon	-4314
▁photo	-4315
▁pread	-4316
▁woman	-4317
▁quasip	-4318
▁school	-4319
ographically	-4320
kw	-4321
aux	-4322
bia	-4323
cis	-4324
fix	-4325
gel	-4326
iol	-4327
neg	-4328
pra	-4329
rst	-4330
uad	-4331
uci	-4332
uda	-4333
▁ay	-4334
▁ny	-4335
▁ow	-4336
arly	-4337
enia	-4338
etes	-4339
idan	-4340
▁euc	-4341
▁eur	-4342
▁hop	-4343
▁kam	-4344
▁mim	-4345
esthe	-4346
human	-4347
ocyst	-4348
oting	-4349
phone	-4350
piece	-4351
rogen	-4352
stitu	-4353
▁barb	-4354
▁hall	-4355
▁mart	-4356
▁scot	-4357
▁subc	-4358
ophile	-4359
▁parad	-4360
atorial	-4361
entially	-4362
dw	-4363
dog	-4364
ems	-4365
gne	-4366
hyl	-4367
igo	-4368
ipi	-4369
itr	-4370
kie	-4371
tyl	-4372
▁pt	-4373
cked	-4374
enda	-4375
gery	-4376
ione	-4377
otax	-4378
ules	-4379
uret	-4380
urse	-4381
ymph	-4382
▁ali	-4383
▁jar	-4384
▁seg	-4385
angel	-4386
asses	-4387
point	-4388
urous	-4389
ystic	-4390
▁alle	-4391
▁calc	-4392
▁mous	-4393
▁russ	-4394
▁ship	-4395
▁sick	-4396
▁tick	-4397
▁unbl	-4398
▁wash	-4399
winged	-4400
▁troph	-4401
oplasty	-4402
present	-4403
▁commun	-4404
▁overex	-4405
atedness	-4406
cil	-4407
dar	-4408
edl	-4409
edo	-4410
eor	-4411
fit	-4412
got	-4413
hir	-4414
hos	-4415
nap	-4416
rdi	-4417
sho	-4418
tac	-4419
uar	-4420
urd	-4421
zel	-4422
ande	-4423
anis	-4424
asic	-4425
aten	-4426
awed	-4427
full	-4428
isth	-4429
long	-4430
meas	-4431
moni	-4432
ncon	-4433
nous	-4434
nted	-4435
oken	-4436
phar	-4437
resh	-4438
▁bud	-4439
▁ell	-4440
▁has	-4441
▁lou	-4442
▁nat	-4443
▁rac	-4444
anted	-4445
esque	-4446
idian	-4447
izers	-4448
roman	-4449
tized	-4450
▁bene	-4451
▁dors	-4452
▁epis	-4453
▁hype	-4454
▁prov	-4455
▁rhin	-4456
▁wing	-4457
loving	-4458
▁cereb	-4459
▁north	-4460
▁semim	-4461
▁tuber	-4462
itarian	-4463
rically	-4464
ulatory	-4465
oplastic	-4466
ebe	-4467
ios	-4468
nni	-4469
oad	-4470
pal	-4471
rar	-4472
sac	-4473
haus	-4474
itan	-4475
junc	-4476
olon	-4477
raft	-4478
rell	-4479
tero	-4480
▁adv	-4481
▁lut	-4482
▁net	-4483
▁sir	-4484
▁vib	-4485
▁wan	-4486
erate	-4487
lines	-4488
omach	-4489
ortun	-4490
▁cosm	-4491
▁epit	-4492
▁orch	-4493
▁pren	-4494
▁reac	-4495
▁shor	-4496
▁test	-4497
alling	-4498
amorph	-4499
aneous	-4500
atured	-4501
olatry	-4502
ongued	-4503
▁frank	-4504
▁semid	-4505
▁stiff	-4506
entness	-4507
ishment	-4508
mouthed	-4509
▁microp	-4510
bd	-4511
sv	-4512
glo	-4513
iot	-4514
iri	-4515
iso	-4516
kel	-4517
lux	-4518
nip	-4519
oec	-4520
olv	-4521
rge	-4522
tag	-4523
aphy	-4524
clad	-4525
cyst	-4526
icat	-4527
inat	-4528
isse	-4529
izin	-4530
oded	-4531
olor	-4532
ophi	-4533
oura	-4534
rium	-4535
star	-4536
uble	-4537
▁alm	-4538
▁dum	-4539
▁gan	-4540
▁gul	-4541
▁kel	-4542
▁plo	-4543
▁unj	-4544
▁woo	-4545
abili	-4546
icism	-4547
ithec	-4548
lette	-4549
ocyan	-4550
piest	-4551
ropri	-4552
▁crow	-4553
▁glen	-4554
▁hept	-4555
▁lamp	-4556
▁micr	-4557
▁sten	-4558
▁symb	-4559
▁uncl	-4560
dering	-4561
idness	-4562
ractic	-4563
rating	-4564
sively	-4565
tingly	-4566
▁squar	-4567
aterial	-4568
lection	-4569
ristian	-4570
aur	-4571
dan	-4572
dor	-4573
eet	-4574
eus	-4575
gri	-4576
lah	-4577
lyn	-4578
sor	-4579
spo	-4580
wig	-4581
▁um	-4582
bill	-4583
ifor	-4584
iper	-4585
mate	-4586
mont	-4587
oked	-4588
sman	-4589
stre	-4590
▁aeg	-4591
▁amo	-4592
▁box	-4593
▁bum	-4594
▁gad	-4595
▁las	-4596
▁lea	-4597
▁nap	-4598
▁pam	-4599
▁pis	-4600
▁rig	-4601
ashed	-4602
ettes	-4603
orphy	-4604
ritis	-4605
ucker	-4606
uding	-4607
▁buff	-4608
▁lock	-4609
▁neur	-4610
▁show	-4611
▁taut	-4612
▁twin	-4613
▁unbe	-4614
▁unpl	-4615
esting	-4616
legged	-4617
ochrom	-4618
▁selfd	-4619
▁silic	-4620
▁nonper	-4621
▁tender	-4622
aut	-4623
bou	-4624
cte	-4625
loo	-4626
ndo	-4627
rde	-4628
tta	-4629
uga	-4630
ulg	-4631
acti	-4632
ahed	-4633
amor	-4634
ando	-4635
ceiv	-4636
erie	-4637
icle	-4638
moid	-4639
nish	-4640
ocar	-4641
ocon	-4642
olis	-4643
quar	-4644
tinu	-4645
titu	-4646
trin	-4647
▁deg	-4648
▁dib	-4649
▁gaz	-4650
▁jam	-4651
▁lay	-4652
▁mak	-4653
▁rei	-4654
armac	-4655
heads	-4656
icked	-4657
onous	-4658
raphy	-4659
stein	-4660
▁bran	-4661
▁draw	-4662
▁free	-4663
▁hack	-4664
▁lead	-4665
▁litt	-4666
▁retr	-4667
▁unli	-4668
glutin	-4669
ionist	-4670
tering	-4671
▁press	-4672
abilities	-4673
ousnesses	-4674
beg	-4675
coc	-4676
dge	-4677
fus	-4678
lap	-4679
luc	-4680
sim	-4681
uba	-4682
bury	-4683
tera	-4684
umed	-4685
▁bip	-4686
▁fis	-4687
▁gum	-4688
▁jug	-4689
▁kne	-4690
▁ner	-4691
▁pav	-4692
dress	-4693
ifier	-4694
onism	-4695
orrha	-4696
stead	-4697
▁coen	-4698
▁dend	-4699
▁dest	-4700
▁diff	-4701
▁fier	-4702
▁hypo	-4703
▁phal	-4704
▁pinn	-4705
▁pseu	-4706
▁subd	-4707
▁tart	-4708
▁vari	-4709
ancing	-4710
apping	-4711
lation	-4712
worker	-4713
▁antis	-4714
▁brach	-4715
▁three	-4716
▁unpar	-4717
tionist	-4718
▁ground	-4719
▁strong	-4720
tionally	-4721
kt	-4722
nj	-4723
elm	-4724
lae	-4725
nad	-4726
rof	-4727
scr	-4728
xim	-4729
abor	-4730
acle	-4731
chol	-4732
ersh	-4733
eses	-4734
gene	-4735
idea	-4736
kily	-4737
ntly	-4738
orrh	-4739
righ	-4740
unte	-4741
▁abo	-4742
▁fen	-4743
▁fic	-4744
▁hab	-4745
▁rap	-4746
antal	-4747
olous	-4748
othec	-4749
tress	-4750
▁coal	-4751
▁infl	-4752
▁need	-4753
▁shel	-4754
▁twel	-4755
lowing	-4756
otroph	-4757
termin	-4758
▁steel	-4759
▁discon	-4760
esthesia	-4761
ometrical	-4762
dt	-4763
dee	-4764
ebr	-4765
fie	-4766
has	-4767
iae	-4768
lti	-4769
nid	-4770
rph	-4771
uds	-4772
▁bs	-4773
▁ji	-4774
bbed	-4775
elig	-4776
gate	-4777
iona	-4778
kind	-4779
lism	-4780
nian	-4781
shot	-4782
▁jap	-4783
▁sax	-4784
▁shr	-4785
▁spr	-4786
▁vio	-4787
analy	-4788
aning	-4789
asser	-4790
blind	-4791
chron	-4792
heart	-4793
illar	-4794
iloqu	-4795
morph	-4796
▁bass	-4797
▁caus	-4798
▁chir	-4799
▁dark	-4800
▁lamb	-4801
▁nick	-4802
▁pach	-4803
▁tall	-4804
athing	-4805
handed	-4806
isable	-4807
tified	-4808
ularity	-4809
wd	-4810
agr	-4811
cht	-4812
dev	-4813
epo	-4814
fig	-4815
liv	-4816
lov	-4817
ymp	-4818
▁eq	-4819
acia	-4820
atal	-4821
atus	-4822
cell	-4823
cted	-4824
cycl	-4825
etri	-4826
opex	-4827
phys	-4828
rose	-4829
utes	-4830
▁bew	-4831
▁nim	-4832
▁pud	-4833
▁rou	-4834
▁wag	-4835
archy	-4836
aying	-4837
eland	-4838
itism	-4839
ophth	-4840
oping	-4841
pound	-4842
roduc	-4843
ulose	-4844
▁batt	-4845
▁coel	-4846
▁cour	-4847
▁evil	-4848
▁nonr	-4849
▁sham	-4850
▁tach	-4851
▁thal	-4852
▁whip	-4853
abilit	-4854
ulates	-4855
▁blast	-4856
▁nucle	-4857
▁phant	-4858
▁spong	-4859
▁single	-4860
▁uncomp	-4861
prehensi	-4862
▁uninter	-4863
yx	-4864
div	-4865
ees	-4866
esm	-4867
hou	-4868
pus	-4869
tax	-4870
▁zi	-4871
asal	-4872
chel	-4873
cles	-4874
emph	-4875
etin	-4876
izat	-4877
ogic	-4878
olle	-4879
ride	-4880
▁das	-4881
▁mit	-4882
▁pir	-4883
▁saf	-4884
▁tus	-4885
eming	-4886
inian	-4887
ocrat	-4888
ophys	-4889
▁acro	-4890
▁alph	-4891
▁euph	-4892
▁flam	-4893
▁lact	-4894
▁meta	-4895
▁pron	-4896
▁rain	-4897
▁salt	-4898
▁slip	-4899
▁ungu	-4900
houses	-4901
icated	-4902
tising	-4903
▁brass	-4904
▁paras	-4905
omaniac	-4906
position	-4907
▁pseudoc	-4908
dc	-4909
alu	-4910
apo	-4911
auc	-4912
ctu	-4913
eny	-4914
far	-4915
fid	-4916
hid	-4917
ibe	-4918
iew	-4919
lun	-4920
mpl	-4921
ngu	-4922
obo	-4923
olt	-4924
▁og	-4925
▁oo	-4926
appe	-4927
asse	-4928
atta	-4929
ceae	-4930
ctor	-4931
erry	-4932
fier	-4933
ipit	-4934
iron	-4935
odal	-4936
pend	-4937
uing	-4938
utch	-4939
▁ame	-4940
▁are	-4941
▁bep	-4942
▁dac	-4943
▁eul	-4944
▁gle	-4945
▁hos	-4946
▁ink	-4947
▁maj	-4948
▁tha	-4949
▁veg	-4950
▁wea	-4951
atous	-4952
ermen	-4953
ogeny	-4954
tised	-4955
▁coff	-4956
▁foss	-4957
▁glob	-4958
▁pink	-4959
▁poll	-4960
▁tent	-4961
▁town	-4962
▁tril	-4963
▁typh	-4964
▁viol	-4965
angled	-4966
ashion	-4967
atural	-4968
raphic	-4969
▁brand	-4970
▁troch	-4971
▁magnet	-4972
▁noncom	-4973
▁quasid	-4974
▁quinqu	-4975
▁subcon	-4976
fication	-4977
▁straight	-4978
aj	-4979
azz	-4980
bid	-4981
bos	-4982
cla	-4983
hap	-4984
mpt	-4985
mur	-4986
rco	-4987
rna	-4988
roa	-4989
sne	-4990
uty	-4991
clos	-4992
itar	-4993
itie	-4994
more	-4995
sies	-4996
wear	-4997
▁bim	-4998
▁gli	-4999
▁joc	-5000
▁peg	-5001
▁phe	-5002
▁que	-5003
▁tag	-5004
▁tip	-5005
ailed	-5006
enced	-5007
ocial	-5008
rance	-5009
round	-5010
▁acid	-5011
▁cell	-5012
▁gluc	-5013
▁ital	-5014
▁mant	-5015
▁miss	-5016
▁panc	-5017
▁soph	-5018
assion	-5019
atable	-5020
▁apost	-5021
▁arist	-5022
▁color	-5023
▁embry	-5024
▁epist	-5025
▁south	-5026
▁watch	-5027
▁butter	-5028
▁overst	-5029
eq	-5030
aye	-5031
eso	-5032
evi	-5033
het	-5034
hur	-5035
jur	-5036
lde	-5037
lph	-5038
mol	-5039
ndr	-5040
nds	-5041
plo	-5042
sex	-5043
tti	-5044
urp	-5045
vat	-5046
aner	-5047
anna	-5048
atop	-5049
bell	-5050
elph	-5051
eria	-5052
gers	-5053
gist	-5054
heim	-5055
imil	-5056
issa	-5057
osin	-5058
roth	-5059
seed	-5060
▁cly	-5061
▁ely	-5062
▁fug	-5063
▁hes	-5064
▁hil	-5065
▁pag	-5066
▁taw	-5067
▁vig	-5068
anize	-5069
belli	-5070
erman	-5071
giest	-5072
itory	-5073
ormal	-5074
oured	-5075
tonic	-5076
women	-5077
▁alco	-5078
▁cerv	-5079
▁demi	-5080
▁engl	-5081
▁mess	-5082
▁prev	-5083
▁stal	-5084
▁trit	-5085
▁verm	-5086
atedly	-5087
eproof	-5088
ialize	-5089
orrhag	-5090
uction	-5091
▁metal	-5092
▁perip	-5093
▁steep	-5094
▁twent	-5095
mission	-5096
olution	-5097
▁hypers	-5098
▁laryng	-5099
wy	-5100
bli	-5101
cup	-5102
dea	-5103
epe	-5104
hex	-5105
mad	-5106
non	-5107
ogs	-5108
raf	-5109
rds	-5110
rme	-5111
rry	-5112
sce	-5113
sea	-5114
via	-5115
wea	-5116
acid	-5117
agen	-5118
agra	-5119
andi	-5120
anga	-5121
asts	-5122
bone	-5123
ecre	-5124
eles	-5125
inch	-5126
lati	-5127
lene	-5128
ocol	-5129
olid	-5130
otri	-5131
path	-5132
rops	-5133
stin	-5134
tomy	-5135
trus	-5136
udge	-5137
▁ace	-5138
▁beh	-5139
▁bid	-5140
▁jun	-5141
▁lep	-5142
▁sob	-5143
igned	-5144
illus	-5145
lling	-5146
ostic	-5147
pling	-5148
sters	-5149
▁bomb	-5150
▁diam	-5151
▁hemi	-5152
▁mort	-5153
▁nont	-5154
▁plas	-5155
▁pleu	-5156
▁shop	-5157
▁side	-5158
▁sole	-5159
▁subp	-5160
▁unfe	-5161
▁unle	-5162
ashing	-5163
ematic	-5164
imeter	-5165
inding	-5166
ogloss	-5167
opsych	-5168
orrhea	-5169
sville	-5170
tempor	-5171
▁impro	-5172
▁outsp	-5173
▁wheel	-5174
▁nonsub	-5175
________________	-5176
kb	-5177
aul	-5178
bot	-5179
cad	-5180
edn	-5181
fir	-5182
gue	-5183
lax	-5184
mil	-5185
ski	-5186
▁za	-5187
aceo	-5188
alic	-5189
alth	-5190
chal	-5191
cock	-5192
corn	-5193
etry	-5194
grap	-5195
ials	-5196
inge	-5197
ioni	-5198
istr	-5199
lest	-5200
most	-5201
rene	-5202
rion	-5203
rism	-5204
▁ale	-5205
▁gau	-5206
▁het	-5207
▁inn	-5208
▁num	-5209
▁pie	-5210
found	-5211
fying	-5212
habit	-5213
inder	-5214
isher	-5215
opped	-5216
quest	-5217
ships	-5218
▁deli	-5219
▁inco	-5220
▁lich	-5221
▁naph	-5222
▁pack	-5223
▁peac	-5224
▁scra	-5225
▁scro	-5226
▁shad	-5227
▁stag	-5228
▁term	-5229
▁time	-5230
▁unhe	-5231
ancies	-5232
coated	-5233
ellect	-5234
▁class	-5235
▁immun	-5236
▁lepid	-5237
▁outst	-5238
▁recom	-5239
▁solid	-5240
▁stick	-5241
oscopic	-5242
▁hyster	-5243
▁summer	-5244
tification	-5245
ao	-5246
arf	-5247
asa	-5248
eac	-5249
eye	-5250
ffs	-5251
gas	-5252
hom	-5253
oom	-5254
rsh	-5255
tir	-5256
amar	-5257
away	-5258
ayed	-5259
book	-5260
cies	-5261
coma	-5262
ects	-5263
eron	-5264
fect	-5265
gler	-5266
hall	-5267
igne	-5268
made	-5269
ooks	-5270
osyn	-5271
phyl	-5272
▁cuc	-5273
▁cym	-5274
▁dat	-5275
▁dav	-5276
▁dio	-5277
▁hul	-5278
▁jur	-5279
▁lie	-5280
▁lil	-5281
▁lum	-5282
▁maz	-5283
▁myc	-5284
▁nab	-5285
▁pus	-5286
▁wed	-5287
anite	-5288
ceous	-5289
lated	-5290
ogist	-5291
▁anch	-5292
▁bott	-5293
▁coch	-5294
▁desp	-5295
▁endo	-5296
▁epid	-5297
▁ille	-5298
▁nect	-5299
▁road	-5300
▁sail	-5301
▁sati	-5302
▁turk	-5303
▁vern	-5304
▁will	-5305
▁wolf	-5306
anging	-5307
ospore	-5308
▁graph	-5309
▁pitch	-5310
▁princ	-5311
▁reass	-5312
▁sound	-5313
ologists	-5314
▁pharyng	-5315
elessness	-5316
bie	-5317
bug	-5318
eum	-5319
hab	-5320
neu	-5321
nif	-5322
rly	-5323
rra	-5324
san	-5325
sma	-5326
tex	-5327
emar	-5328
enne	-5329
iver	-5330
limb	-5331
lous	-5332
lows	-5333
mine	-5334
oden	-5335
pent	-5336
riti	-5337
tati	-5338
tous	-5339
ully	-5340
urge	-5341
ylon	-5342
zzle	-5343
▁anc	-5344
▁baw	-5345
▁boy	-5346
▁dal	-5347
▁gus	-5348
▁gyp	-5349
▁haz	-5350
▁kid	-5351
▁mou	-5352
▁pug	-5353
▁vor	-5354
▁wre	-5355
allic	-5356
atine	-5357
ember	-5358
iflor	-5359
itish	-5360
lness	-5361
osaur	-5362
sions	-5363
ymmet	-5364
▁chim	-5365
▁dand	-5366
▁gamb	-5367
▁mend	-5368
▁outw	-5369
▁rabb	-5370
▁reed	-5371
▁roll	-5372
▁spic	-5373
▁trib	-5374
▁unne	-5375
▁unro	-5376
erican	-5377
ophysi	-5378
torial	-5379
utable	-5380
vision	-5381
▁cloud	-5382
▁odont	-5383
▁parap	-5384
▁perit	-5385
▁polyp	-5386
▁stand	-5387
▁unass	-5388
omeness	-5389
▁nonres	-5390
▁quarter	-5391
fc	-5392
gt	-5393
aks	-5394
dio	-5395
eam	-5396
esa	-5397
fru	-5398
hly	-5399
jun	-5400
mac	-5401
sar	-5402
tam	-5403
uis	-5404
ails	-5405
ecom	-5406
essi	-5407
eton	-5408
iana	-5409
iger	-5410
ilin	-5411
inda	-5412
ints	-5413
iven	-5414
kill	-5415
mist	-5416
otte	-5417
tein	-5418
tone	-5419
tron	-5420
ulti	-5421
uman	-5422
wick	-5423
yper	-5424
▁bak	-5425
▁beb	-5426
▁bry	-5427
▁cov	-5428
▁dit	-5429
▁dom	-5430
▁dub	-5431
▁lak	-5432
▁lub	-5433
▁sit	-5434
▁tat	-5435
▁zon	-5436
atrix	-5437
itted	-5438
oclas	-5439
oling	-5440
ophyl	-5441
▁appe	-5442
▁clav	-5443
▁here	-5444
▁octa	-5445
▁span	-5446
▁step	-5447
▁subt	-5448
▁synt	-5449
▁tort	-5450
▁ultr	-5451
▁weak	-5452
▁worm	-5453
backed	-5454
billed	-5455
emaker	-5456
entive	-5457
tility	-5458
tizing	-5459
ulture	-5460
witted	-5461
▁first	-5462
▁hepat	-5463
▁nonac	-5464
▁overw	-5465
▁prest	-5466
▁quart	-5467
▁screw	-5468
▁untra	-5469
▁vapor	-5470
obranch	-5471
wrought	-5472
▁microc	-5473
▁narrow	-5474
▁sacchar	-5475
lw	-5476
alb	-5477
bag	-5478
ega	-5479
hau	-5480
iar	-5481
iny	-5482
mix	-5483
mov	-5484
nim	-5485
oka	-5486
pel	-5487
rud	-5488
sub	-5489
vag	-5490
bour	-5491
buil	-5492
chia	-5493
coat	-5494
empt	-5495
ende	-5496
eper	-5497
gger	-5498
icon	-5499
igra	-5500
lass	-5501
oglo	-5502
omyc	-5503
onde	-5504
ousl	-5505
rive	-5506
vere	-5507
ydro	-5508
▁ald	-5509
▁aux	-5510
▁bub	-5511
▁emm	-5512
▁enf	-5513
▁gay	-5514
▁glu	-5515
▁joy	-5516
▁lup	-5517
▁nem	-5518
▁rhy	-5519
▁row	-5520
▁sne	-5521
▁stu	-5522
▁two	-5523
▁wig	-5524
appro	-5525
ardia	-5526
backs	-5527
ician	-5528
odial	-5529
ordin	-5530
orpor	-5531
tiona	-5532
ulter	-5533
▁acco	-5534
▁acqu	-5535
▁alex	-5536
▁anem	-5537
▁burg	-5538
▁chel	-5539
▁coin	-5540
▁drop	-5541
▁even	-5542
▁mong	-5543
▁myri	-5544
▁outf	-5545
▁outp	-5546
▁pect	-5547
▁repl	-5548
▁stan	-5549
▁succ	-5550
▁unev	-5551
anting	-5552
endent	-5553
izatio	-5554
nation	-5555
▁contr	-5556
▁frost	-5557
▁monoc	-5558
▁squam	-5559
▁unacc	-5560
icality	-5561
▁quadri	-5562
▁quasis	-5563
▁trache	-5564
▁transc	-5565
▁ophthalm	-5566
dp	-5567
sd	-5568
alv	-5569
ffy	-5570
gun	-5571
idu	-5572
mme	-5573
nci	-5574
ooz	-5575
reo	-5576
rmi	-5577
sso	-5578
sth	-5579
sty	-5580
uce	-5581
usl	-5582
was	-5583
▁bh	-5584
▁eb	-5585
▁gw	-5586
ador	-5587
assi	-5588
asty	-5589
bott	-5590
dian	-5591
emis	-5592
erse	-5593
hort	-5594
icer	-5595
luor	-5596
odox	-5597
ossi	-5598
rill	-5599
stan	-5600
tate	-5601
tina	-5602
yled	-5603
▁alc	-5604
▁duc	-5605
▁les	-5606
▁mcc	-5607
▁oss	-5608
▁rit	-5609
▁ruf	-5610
▁tex	-5611
▁zym	-5612
arial	-5613
color	-5614
empor	-5615
erved	-5616
judic	-5617
lying	-5618
occup	-5619
ococc	-5620
odend	-5621
osome	-5622
stock	-5623
▁anal	-5624
▁bank	-5625
▁fant	-5626
▁gene	-5627
▁grav	-5628
▁hang	-5629
▁ling	-5630
▁main	-5631
▁nonl	-5632
▁pala	-5633
▁penn	-5634
▁shin	-5635
▁sund	-5636
▁unan	-5637
cation	-5638
commod	-5639
illion	-5640
kinned	-5641
lander	-5642
▁count	-5643
▁disin	-5644
▁later	-5645
▁overm	-5646
▁plasm	-5647
▁squir	-5648
▁stone	-5649
▁unman	-5650
brained	-5651
jection	-5652
ocratic	-5653
▁carbon	-5654
pression	-5655
volution	-5656
dh	-5657
enu	-5658
hec	-5659
hoe	-5660
iah	-5661
icr	-5662
iel	-5663
igr	-5664
lom	-5665
lys	-5666
obs	-5667
ova	-5668
rey	-5669
rro	-5670
tae	-5671
usp	-5672
vor	-5673
yon	-5674
ysi	-5675
aces	-5676
amel	-5677
apor	-5678
cake	-5679
cele	-5680
ffin	-5681
hour	-5682
kery	-5683
kier	-5684
nion	-5685
opal	-5686
osto	-5687
oton	-5688
ours	-5689
thor	-5690
unde	-5691
zoic	-5692
▁ded	-5693
▁die	-5694
▁dob	-5695
▁dru	-5696
▁fif	-5697
▁fog	-5698
▁ina	-5699
▁oak	-5700
▁rip	-5701
▁tho	-5702
▁urb	-5703
▁vil	-5704
▁wra	-5705
craft	-5706
emper	-5707
genic	-5708
istra	-5709
oking	-5710
preci	-5711
rench	-5712
uming	-5713
woven	-5714
▁elec	-5715
▁emer	-5716
▁fast	-5717
▁gard	-5718
▁lati	-5719
▁milk	-5720
▁outb	-5721
▁rect	-5722
▁scap	-5723
▁spur	-5724
▁unar	-5725
▁unme	-5726
ective	-5727
icking	-5728
inting	-5729
▁antin	-5730
▁honey	-5731
▁pachy	-5732
▁proct	-5733
▁sheep	-5734
▁wrong	-5735
covered	-5736
▁galvan	-5737
bt	-5738
chs	-5739
ebo	-5740
edd	-5741
nna	-5742
num	-5743
oar	-5744
ocu	-5745
rrh	-5746
rsi	-5747
viv	-5748
yri	-5749
yte	-5750
▁kw	-5751
aned	-5752
avor	-5753
dehy	-5754
duce	-5755
esce	-5756
etto	-5757
iano	-5758
ista	-5759
odec	-5760
ousn	-5761
rica	-5762
rina	-5763
tere	-5764
▁ari	-5765
▁bif	-5766
▁cec	-5767
▁ced	-5768
▁chl	-5769
▁coa	-5770
▁cyl	-5771
▁fee	-5772
▁goo	-5773
▁hod	-5774
▁kok	-5775
▁kra	-5776
▁lot	-5777
▁mom	-5778
▁pee	-5779
▁pou	-5780
▁ris	-5781
▁rug	-5782
▁wad	-5783
acted	-5784
alian	-5785
entia	-5786
grown	-5787
iring	-5788
otome	-5789
phyll	-5790
tness	-5791
uster	-5792
yllab	-5793
▁coad	-5794
▁cred	-5795
▁cust	-5796
▁gray	-5797
▁icon	-5798
▁mind	-5799
▁outc	-5800
▁trid	-5801
▁ward	-5802
arming	-5803
embran	-5804
holder	-5805
oplasm	-5806
phobia	-5807
weight	-5808
▁check	-5809
▁right	-5810
▁seven	-5811
▁storm	-5812
▁table	-5813
athered	-5814
otomies	-5815
rometer	-5816
tiously	-5817
▁forest	-5818
▁predis	-5819
▁wonder	-5820
▁encephal	-5821
ml	-5822
uy	-5823
ais	-5824
bet	-5825
erw	-5826
fal	-5827
lut	-5828
mid	-5829
noi	-5830
rhe	-5831
rmo	-5832
uat	-5833
uel	-5834
uvi	-5835
yro	-5836
▁ef	-5837
ayan	-5838
bili	-5839
blue	-5840
cker	-5841
curi	-5842
dens	-5843
essa	-5844
esth	-5845
fici	-5846
hron	-5847
ican	-5848
ilis	-5849
know	-5850
lish	-5851
mers	-5852
mile	-5853
ners	-5854
ords	-5855
posi	-5856
sequ	-5857
seud	-5858
stat	-5859
teen	-5860
tise	-5861
udal	-5862
uple	-5863
ymen	-5864
ysti	-5865
▁ano	-5866
▁eug	-5867
▁hib	-5868
▁hig	-5869
▁lod	-5870
▁rab	-5871
▁tes	-5872
▁uph	-5873
▁zoo	-5874
acity	-5875
aphyl	-5876
ellin	-5877
hound	-5878
lytic	-5879
ochem	-5880
orrup	-5881
▁chro	-5882
▁cler	-5883
▁ding	-5884
▁ethn	-5885
▁five	-5886
▁fung	-5887
▁hind	-5888
▁hone	-5889
▁mark	-5890
▁neut	-5891
▁pier	-5892
▁real	-5893
▁summ	-5894
▁synd	-5895
▁tour	-5896
▁unfl	-5897
inning	-5898
isting	-5899
tation	-5900
urable	-5901
▁blind	-5902
▁bread	-5903
▁indig	-5904
▁phren	-5905
▁platy	-5906
▁selen	-5907
idental	-5908
▁dermat	-5909
▁german	-5910
▁mechan	-5911
▁pharmac	-5912
sq	-5913
azi	-5914
chr	-5915
cie	-5916
eba	-5917
ewa	-5918
gis	-5919
hth	-5920
nov	-5921
oer	-5922
oop	-5923
rni	-5924
rta	-5925
sky	-5926
sul	-5927
▁ib	-5928
achi	-5929
ario	-5930
ayer	-5931
clin	-5932
ffed	-5933
fort	-5934
greg	-5935
lace	-5936
logi	-5937
medi	-5938
onin	-5939
opin	-5940
oris	-5941
pole	-5942
ulic	-5943
utor	-5944
yrin	-5945
▁adj	-5946
▁ank	-5947
▁cob	-5948
▁eye	-5949
▁key	-5950
▁kon	-5951
▁loo	-5952
▁nod	-5953
▁pub	-5954
▁pyc	-5955
▁sib	-5956
▁too	-5957
▁who	-5958
▁yel	-5959
arius	-5960
assed	-5961
blast	-5962
ecked	-5963
kings	-5964
lands	-5965
tight	-5966
toned	-5967
trans	-5968
ulary	-5969
white	-5970
▁brow	-5971
▁clad	-5972
▁hear	-5973
▁jour	-5974
▁mari	-5975
▁mult	-5976
▁outd	-5977
▁timb	-5978
▁unlo	-5979
ablene	-5980
acking	-5981
inging	-5982
itated	-5983
tained	-5984
uality	-5985
▁brown	-5986
▁habit	-5987
▁incom	-5988
▁kerat	-5989
▁nondi	-5990
▁semif	-5991
▁tooth	-5992
▁wells	-5993
▁young	-5994
eration	-5995
ivorous	-5996
ticular	-5997
tifying	-5998
ulative	-5999
uration	-6000
▁bronch	-6001
fingered	-6002
flowered	-6003
siveness	-6004
▁thought	-6005
bc	-6006
alp	-6007
def	-6008
eva	-6009
gil	-6010
hie	-6011
how	-6012
ims	-6013
isl	-6014
nae	-6015
ngi	-6016
oos	-6017
rue	-6018
sph	-6019
tow	-6020
ague	-6021
atha	-6022
dent	-6023
dish	-6024
igin	-6025
imal	-6026
inet	-6027
inus	-6028
nded	-6029
nier	-6030
obil	-6031
ococ	-6032
onti	-6033
onto	-6034
orne	-6035
osal	-6036
otal	-6037
oved	-6038
psis	-6039
ranc	-6040
rank	-6041
thic	-6042
unce	-6043
weep	-6044
yard	-6045
▁cox	-6046
▁daw	-6047
▁mem	-6048
▁neo	-6049
▁rew	-6050
ablen	-6051
acean	-6052
agged	-6053
azine	-6054
blers	-6055
borne	-6056
itant	-6057
omely	-6058
opoda	-6059
ratic	-6060
tives	-6061
▁amor	-6062
▁bast	-6063
▁blas	-6064
▁camb	-6065
▁clam	-6066
▁conn	-6067
▁cros	-6068
▁cyto	-6069
▁flav	-6070
▁ging	-6071
▁kill	-6072
▁ligh	-6073
▁narc	-6074
▁pend	-6075
▁pist	-6076
▁ramp	-6077
▁slav	-6078
▁thym	-6079
▁unqu	-6080
▁vest	-6081
atched	-6082
atives	-6083
iality	-6084
ocardi	-6085
▁angel	-6086
▁block	-6087
▁clean	-6088
▁dream	-6089
▁field	-6090
▁phyto	-6091
▁plain	-6092
▁retin	-6093
▁river	-6094
▁semin	-6095
▁still	-6096
▁church	-6097
▁sevent	-6098
▁ureter	-6099
otropism	-6100
tization	-6101
▁pseudos	-6102
ationally	-6103
sg	-6104
api	-6105
apy	-6106
aty	-6107
bla	-6108
boa	-6109
cta	-6110
iba	-6111
joy	-6112
oki	-6113
rax	-6114
rld	-6115
ryp	-6116
ulu	-6117
ypt	-6118
alls	-6119
anas	-6120
andy	-6121
cule	-6122
grow	-6123
iche	-6124
itiv	-6125
nger	-6126
nium	-6127
obac	-6128
ongs	-6129
sher	-6130
uate	-6131
vate	-6132
yers	-6133
▁ade	-6134
▁ani	-6135
▁bom	-6136
▁cun	-6137
▁ges	-6138
▁gur	-6139
▁hav	-6140
▁hec	-6141
▁ine	-6142
▁moo	-6143
▁nep	-6144
▁nid	-6145
▁rib	-6146
▁rob	-6147
▁tau	-6148
▁wav	-6149
▁wet	-6150
brown	-6151
elian	-6152
inism	-6153
iture	-6154
izati	-6155
odium	-6156
ongue	-6157
order	-6158
smith	-6159
uncul	-6160
verte	-6161
ylous	-6162
▁amid	-6163
▁beth	-6164
▁brad	-6165
▁chec	-6166
▁club	-6167
▁cogn	-6168
▁door	-6169
▁flex	-6170
▁flow	-6171
▁lion	-6172
▁repr	-6173
▁spha	-6174
▁stil	-6175
▁tess	-6176
▁toad	-6177
▁unic	-6178
▁whir	-6179
▁whis	-6180
alline	-6181
bodied	-6182
odynia	-6183
vering	-6184
worthy	-6185
▁ammon	-6186
▁chole	-6187
▁cloth	-6188
▁echin	-6189
▁quint	-6190
▁sphen	-6191
▁strat	-6192
▁tyran	-6193
antness	-6194
ception	-6195
▁selfex	-6196
▁selfre	-6197
ranchiate	-6198
hf	-6199
iq	-6200
sr	-6201
atc	-6202
aun	-6203
doc	-6204
epa	-6205
epr	-6206
gus	-6207
iry	-6208
jan	-6209
mbo	-6210
mps	-6211
nly	-6212
nsu	-6213
put	-6214
rug	-6215
sat	-6216
sca	-6217
sms	-6218
xer	-6219
yel	-6220
adem	-6221
cast	-6222
each	-6223
gain	-6224
gian	-6225
grad	-6226
laid	-6227
lete	-6228
lied	-6229
osco	-6230
pler	-6231
ples	-6232
post	-6233
rase	-6234
spor	-6235
vest	-6236
▁agu	-6237
▁eut	-6238
▁jet	-6239
▁jol	-6240
▁map	-6241
▁nam	-6242
▁pau	-6243
▁phi	-6244
▁rar	-6245
▁tou	-6246
elite	-6247
indic	-6248
iotic	-6249
itous	-6250
nally	-6251
opers	-6252
opper	-6253
orite	-6254
ridge	-6255
scope	-6256
state	-6257
therm	-6258
▁bond	-6259
▁dram	-6260
▁herm	-6261
▁nigh	-6262
▁nonn	-6263
▁prin	-6264
▁pror	-6265
▁ratt	-6266
▁reti	-6267
▁slee	-6268
▁stup	-6269
odical	-6270
oplast	-6271
terior	-6272
terous	-6273
▁centi	-6274
▁clear	-6275
▁devil	-6276
▁dynam	-6277
▁hydra	-6278
▁infer	-6279
▁melod	-6280
▁nonim	-6281
▁paleo	-6282
▁paper	-6283
▁phleb	-6284
▁sangu	-6285
▁unint	-6286
angular	-6287
unction	-6288
▁triple	-6289
ticalness	-6290
wb	-6291
yh	-6292
yz	-6293
axi	-6294
cio	-6295
hai	-6296
hri	-6297
iex	-6298
iqu	-6299
jet	-6300
lod	-6301
mou	-6302
nag	-6303
oct	-6304
oor	-6305
rts	-6306
rul	-6307
spr	-6308
yla	-6309
zoa	-6310
▁ek	-6311
▁io	-6312
▁ry	-6313
chen	-6314
dles	-6315
edes	-6316
enet	-6317
enin	-6318
enny	-6319
erid	-6320
erma	-6321
ffic	-6322
hman	-6323
ield	-6324
imen	-6325
inas	-6326
itri	-6327
leen	-6328
lily	-6329
mier	-6330
ogyn	-6331
osta	-6332
reci	-6333
rted	-6334
sent	-6335
worn	-6336
▁cyc	-6337
▁esp	-6338
▁fad	-6339
▁geo	-6340
▁hyl	-6341
▁lau	-6342
▁lis	-6343
▁thu	-6344
cepti	-6345
cious	-6346
cking	-6347
cular	-6348
ephal	-6349
erite	-6350
inite	-6351
ircum	-6352
leted	-6353
onium	-6354
osite	-6355
udded	-6356
uplic	-6357
▁anap	-6358
▁bern	-6359
▁bill	-6360
▁boat	-6361
▁chan	-6362
▁chas	-6363
▁drum	-6364
▁dust	-6365
▁ench	-6366
▁guar	-6367
▁kary	-6368
▁lind	-6369
▁loos	-6370
▁ment	-6371
▁mini	-6372
▁mism	-6373
▁pear	-6374
▁plow	-6375
▁pock	-6376
▁prom	-6377
▁rack	-6378
▁rand	-6379
▁reim	-6380
▁righ	-6381
▁sanc	-6382
▁scor	-6383
▁scut	-6384
▁skin	-6385
▁stam	-6386
▁swan	-6387
▁uncr	-6388
▁urin	-6389
change	-6390
osperm	-6391
thetic	-6392
▁aster	-6393
▁chick	-6394
▁colum	-6395
▁epith	-6396
▁infra	-6397
▁reacc	-6398
▁tight	-6399
▁unfor	-6400
emaking	-6401
jointed	-6402
logical	-6403
▁interc	-6404
▁interp	-6405
▁metall	-6406
▁microm	-6407
▁miscon	-6408
▁opisth	-6409
▁tempor	-6410
oblastic	-6411
▁weather	-6412
alization	-6413
mc	-6414
wt	-6415
acr	-6416
adr	-6417
avo	-6418
ecl	-6419
lai	-6420
lve	-6421
mbe	-6422
oan	-6423
ogo	-6424
roy	-6425
rve	-6426
sem	-6427
uid	-6428
woo	-6429
wre	-6430
zat	-6431
atia	-6432
aton	-6433
atum	-6434
bers	-6435
chro	-6436
comb	-6437
dler	-6438
eded	-6439
etch	-6440
hile	-6441
isen	-6442
oele	-6443
ogue	-6444
omel	-6445
oxin	-6446
quil	-6447
spar	-6448
thin	-6449
tine	-6450
tori	-6451
tted	-6452
ulos	-6453
ween	-6454
▁cau	-6455
▁chu	-6456
▁coh	-6457
▁ech	-6458
▁fed	-6459
▁gim	-6460
▁hai	-6461
▁jaw	-6462
▁leu	-6463
▁mys	-6464
▁oly	-6465
▁tai	-6466
▁tup	-6467
ached	-6468
alite	-6469
enoid	-6470
green	-6471
ogamy	-6472
rotic	-6473
urban	-6474
ustri	-6475
weeds	-6476
▁anab	-6477
▁epil	-6478
▁frac	-6479
▁fred	-6480
▁glad	-6481
▁misp	-6482
▁neck	-6483
▁nerv	-6484
▁prea	-6485
▁prel	-6486
▁requ	-6487
▁shir	-6488
▁unal	-6489
▁unam	-6490
▁unte	-6491
▁visc	-6492
▁warm	-6493
aching	-6494
acting	-6495
ameter	-6496
ecting	-6497
keeper	-6498
ualism	-6499
▁brain	-6500
▁brick	-6501
▁forep	-6502
▁heavy	-6503
▁marsh	-6504
▁prick	-6505
▁saint	-6506
▁spear	-6507
osphere	-6508
▁acanth	-6509
▁conven	-6510
▁middle	-6511
▁overre	-6512
▁preter	-6513
▁overpro	-6514
dj	-6515
aso	-6516
bee	-6517
fec	-6518
fri	-6519
gie	-6520
gui	-6521
hre	-6522
kne	-6523
mma	-6524
nca	-6525
nen	-6526
nou	-6527
olf	-6528
rev	-6529
too	-6530
usn	-6531
xyl	-6532
ydr	-6533
yes	-6534
zie	-6535
▁dj	-6536
▁ia	-6537
acal	-6538
athi	-6539
chus	-6540
clas	-6541
coid	-6542
eech	-6543
eros	-6544
ffle	-6545
ivel	-6546
ller	-6547
mitt	-6548
mous	-6549
nity	-6550
onis	-6551
onne	-6552
rage	-6553
role	-6554
scop	-6555
stal	-6556
thon	-6557
tree	-6558
ttle	-6559
urin	-6560
west	-6561
▁hir	-6562
▁hug	-6563
▁jul	-6564
▁kan	-6565
▁kim	-6566
▁lud	-6567
▁mum	-6568
▁tyl	-6569
atron	-6570
enous	-6571
essor	-6572
ettle	-6573
gical	-6574
kered	-6575
odies	-6576
oofed	-6577
ophyt	-6578
tured	-6579
ubber	-6580
ussed	-6581
woods	-6582
▁cole	-6583
▁crus	-6584
▁herb	-6585
▁rear	-6586
▁rhab	-6587
▁scab	-6588
▁silk	-6589
▁song	-6590
▁sour	-6591
▁spad	-6592
▁turb	-6593
▁what	-6594
anding	-6595
ensive	-6596
fellow	-6597
ington	-6598
lingly	-6599
ochlor	-6600
ogical	-6601
onical	-6602
▁appro	-6603
▁break	-6604
▁brook	-6605
▁ether	-6606
▁fruit	-6607
▁great	-6608
▁human	-6609
▁invol	-6610
▁steam	-6611
▁thorn	-6612
▁unsup	-6613
atching	-6614
taining	-6615
toothed	-6616
uscular	-6617
▁heaven	-6618
▁master	-6619
▁quasif	-6620
▁rubber	-6621
orrhagia	-6622
▁overcon	-6623
▁tubercul	-6624
fd	-6625
ih	-6626
pm	-6627
pn	-6628
gos	-6629
gul	-6630
iaz	-6631
iet	-6632
ipo	-6633
kis	-6634
kon	-6635
oen	-6636
onv	-6637
phs	-6638
scu	-6639
sib	-6640
tea	-6641
ucl	-6642
yar	-6643
yre	-6644
zan	-6645
▁tz	-6646
arie	-6647
arti	-6648
assa	-6649
atel	-6650
ecan	-6651
folk	-6652
gged	-6653
load	-6654
mina	-6655
olas	-6656
omor	-6657
opoe	-6658
opul	-6659
orda	-6660
orts	-6661
orus	-6662
osar	-6663
ounc	-6664
rail	-6665
rosi	-6666
scap	-6667
side	-6668
sper	-6669
tied	-6670
ubri	-6671
viol	-6672
ylar	-6673
▁abl	-6674
▁dee	-6675
▁dif	-6676
▁exo	-6677
▁fai	-6678
▁fut	-6679
▁gav	-6680
▁hid	-6681
▁kab	-6682
▁mix	-6683
▁nud	-6684
▁poo	-6685
▁swa	-6686
▁yar	-6687
acies	-6688
alous	-6689
ambul	-6690
arity	-6691
arize	-6692
ashes	-6693
atics	-6694
divid	-6695
ellig	-6696
glass	-6697
hydra	-6698
icall	-6699
ineal	-6700
isten	-6701
nable	-6702
ophob	-6703
osing	-6704
ostat	-6705
owned	-6706
penny	-6707
ropor	-6708
stant	-6709
sting	-6710
times	-6711
tival	-6712
tures	-6713
verse	-6714
yless	-6715
▁adam	-6716
▁adip	-6717
▁apoc	-6718
▁bree	-6719
▁chic	-6720
▁chur	-6721
▁clay	-6722
▁fell	-6723
▁leaf	-6724
▁leuk	-6725
▁love	-6726
▁marc	-6727
▁musk	-6728
▁outg	-6729
▁pill	-6730
▁poss	-6731
▁preb	-6732
▁resp	-6733
▁seed	-6734
▁sequ	-6735
▁stor	-6736
▁unma	-6737
anthus	-6738
eaking	-6739
ission	-6740
olysis	-6741
olytic	-6742
omycet	-6743
orious	-6744
otoxin	-6745
rology	-6746
▁champ	-6747
▁colon	-6748
▁crani	-6749
▁deter	-6750
▁homoe	-6751
▁nonab	-6752
▁ocean	-6753
▁plagi	-6754
▁plant	-6755
▁preco	-6756
▁semil	-6757
▁sever	-6758
▁spher	-6759
elessly	-6760
itating	-6761
ologize	-6762
oration	-6763
▁intern	-6764
▁nondep	-6765
▁paraph	-6766
arianism	-6767
aryngeal	-6768
ectomies	-6769
mentally	-6770
headedness	-6771
aa	-6772
bm	-6773
agh	-6774
cou	-6775
efe	-6776
gio	-6777
hew	-6778
hra	-6779
hys	-6780
mag	-6781
mie	-6782
oxi	-6783
pis	-6784
smo	-6785
squ	-6786
wic	-6787
ymb	-6788
▁ut	-6789
▁yu	-6790
alit	-6791
alla	-6792
ames	-6793
cham	-6794
chie	-6795
elie	-6796
enol	-6797
ento	-6798
gium	-6799
grav	-6800
high	-6801
leas	-6802
lesh	-6803
lett	-6804
lips	-6805
nary	-6806
odor	-6807
orse	-6808
reed	-6809
rupt	-6810
rust	-6811
tely	-6812
ubil	-6813
undi	-6814
utic	-6815
▁gaw	-6816
▁mug	-6817
▁paw	-6818
▁rod	-6819
▁teg	-6820
▁tul	-6821
acher	-6822
arbon	-6823
arism	-6824
econd	-6825
ellum	-6826
ensed	-6827
flies	-6828
horse	-6829
ingle	-6830
lowed	-6831
omous	-6832
orrhe	-6833
uated	-6834
uthor	-6835
▁amin	-6836
▁auri	-6837
▁aver	-6838
▁boot	-6839
▁caul	-6840
▁expl	-6841
▁fiss	-6842
▁fort	-6843
▁grim	-6844
▁harp	-6845
▁idio	-6846
▁insp	-6847
▁lack	-6848
▁meli	-6849
▁moun	-6850
▁obli	-6851
▁stud	-6852
▁trig	-6853
▁vacc	-6854
▁vine	-6855
oelect	-6856
ogramm	-6857
ophone	-6858
otherm	-6859
otypic	-6860
riform	-6861
rously	-6862
script	-6863
strate	-6864
▁arsen	-6865
▁crack	-6866
▁glauc	-6867
▁heath	-6868
▁irres	-6869
▁monos	-6870
▁polys	-6871
▁tereb	-6872
▁wellf	-6873
igerous	-6874
odactyl	-6875
opathic	-6876
▁brachy	-6877
▁french	-6878
▁hyperm	-6879
▁siphon	-6880
▁terror	-6881
▁twices	-6882
entation	-6883
essional	-6884
ophagous	-6885
orrhaphy	-6886
▁paralle	-6887
▁politic	-6888
aeo	-6889
etz	-6890
leo	-6891
lur	-6892
oit	-6893
pil	-6894
rbo	-6895
rik	-6896
rle	-6897
tak	-6898
wat	-6899
anil	-6900
arms	-6901
cuit	-6902
foil	-6903
foli	-6904
fted	-6905
ifie	-6906
inia	-6907
itin	-6908
iton	-6909
lins	-6910
nces	-6911
ntal	-6912
ouri	-6913
shap	-6914
thus	-6915
tico	-6916
tium	-6917
urgy	-6918
▁aft	-6919
▁arb	-6920
▁dot	-6921
▁erg	-6922
▁fet	-6923
▁hin	-6924
▁ice	-6925
▁kee	-6926
▁nag	-6927
▁pes	-6928
▁slu	-6929
▁vex	-6930
▁wer	-6931
break	-6932
chnic	-6933
chool	-6934
ectic	-6935
gment	-6936
litic	-6937
monic	-6938
orrho	-6939
tting	-6940
ylene	-6941
zzled	-6942
▁bard	-6943
▁blue	-6944
▁cres	-6945
▁desm	-6946
▁fool	-6947
▁hero	-6948
▁hook	-6949
▁kind	-6950
▁larg	-6951
▁late	-6952
▁news	-6953
▁nong	-6954
▁part	-6955
▁poli	-6956
▁rail	-6957
▁resh	-6958
▁ruff	-6959
▁sext	-6960
▁tell	-6961
▁trim	-6962
▁verb	-6963
▁year	-6964
acular	-6965
enosis	-6966
lipped	-6967
ousnes	-6968
scious	-6969
tition	-6970
utting	-6971
▁belly	-6972
▁coron	-6973
▁denti	-6974
▁exter	-6975
▁fresh	-6976
▁hatch	-6977
▁impre	-6978
▁metap	-6979
▁nonsp	-6980
▁nonsy	-6981
▁peris	-6982
▁selff	-6983
▁somat	-6984
▁speed	-6985
▁unrec	-6986
▁unver	-6987
atorily	-6988
general	-6989
ialness	-6990
igenous	-6991
itively	-6992
pointed	-6993
▁deuter	-6994
▁neurop	-6995
▁thermo	-6996
ocarpous	-6997
ophorous	-6998
▁bacteri	-6999
▁feather	-7000
▁superex	-7001
heartedness	-7002
hc	-7003
hd	-7004
pc	-7005
abu	-7006
amn	-7007
cab	-7008
eut	-7009
fan	-7010
new	-7011
obl	-7012
ocl	-7013
pac	-7014
sig	-7015
spl	-7016
tog	-7017
xic	-7018
yco	-7019
yin	-7020
appy	-7021
aras	-7022
arer	-7023
atry	-7024
aver	-7025
cour	-7026
dine	-7027
esia	-7028
glot	-7029
icro	-7030
isto	-7031
ived	-7032
lood	-7033
mand	-7034
noid	-7035
ocep	-7036
okes	-7037
phot	-7038
pose	-7039
pper	-7040
rett	-7041
rify	-7042
rman	-7043
road	-7044
shes	-7045
trap	-7046
wart	-7047
zone	-7048
▁acr	-7049
▁civ	-7050
▁fit	-7051
▁gin	-7052
▁gow	-7053
▁hut	-7054
▁nik	-7055
▁raz	-7056
▁say	-7057
▁sie	-7058
▁ult	-7059
▁wom	-7060
anese	-7061
anked	-7062
awing	-7063
embry	-7064
ether	-7065
inged	-7066
itary	-7067
itely	-7068
ledge	-7069
level	-7070
lized	-7071
optic	-7072
place	-7073
ramid	-7074
ricul	-7075
ropic	-7076
worms	-7077
▁bear	-7078
▁fals	-7079
▁fund	-7080
▁glyc	-7081
▁hart	-7082
▁hill	-7083
▁loud	-7084
▁oxid	-7085
▁pain	-7086
▁pisc	-7087
▁poet	-7088
▁rech	-7089
▁seas	-7090
▁sent	-7091
▁tetr	-7092
▁thio	-7093
▁unra	-7094
active	-7095
anning	-7096
atomic	-7097
dehyde	-7098
estion	-7099
ushing	-7100
wardly	-7101
▁domin	-7102
▁medic	-7103
▁nonse	-7104
▁nonst	-7105
▁pearl	-7106
▁presc	-7107
▁spoon	-7108
▁truth	-7109
alities	-7110
crowned	-7111
▁branch	-7112
▁golden	-7113
▁metaph	-7114
▁multic	-7115
▁quasim	-7116
▁untran	-7117
▁pneumat	-7118
aciousness	-7119
mindedness	-7120
nq	-7121
aic	-7122
dat	-7123
eav	-7124
eou	-7125
foo	-7126
itc	-7127
izo	-7128
neb	-7129
obr	-7130
onp	-7131
ucc	-7132
uge	-7133
zym	-7134
▁ei	-7135
▁oi	-7136
▁oy	-7137
apon	-7138
axes	-7139
bark	-7140
ecto	-7141
eful	-7142
enna	-7143
esto	-7144
fiel	-7145
hrom	-7146
imic	-7147
jour	-7148
link	-7149
mani	-7150
mite	-7151
ogas	-7152
ordi	-7153
spot	-7154
tici	-7155
toed	-7156
yles	-7157
▁aco	-7158
▁agn	-7159
▁coo	-7160
▁emo	-7161
▁ili	-7162
▁jig	-7163
▁kas	-7164
▁lux	-7165
▁mec	-7166
▁mig	-7167
▁ori	-7168
▁pim	-7169
▁pli	-7170
▁rav	-7171
▁sop	-7172
▁sov	-7173
▁tak	-7174
▁tas	-7175
▁viz	-7176
▁web	-7177
about	-7178
ancer	-7179
aphic	-7180
estim	-7181
ipped	-7182
ipper	-7183
istle	-7184
layer	-7185
leton	-7186
lific	-7187
menti	-7188
nding	-7189
oneph	-7190
opoly	-7191
shell	-7192
shoot	-7193
staff	-7194
teric	-7195
tings	-7196
uckle	-7197
usive	-7198
world	-7199
▁anag	-7200
▁brig	-7201
▁brun	-7202
▁curi	-7203
▁duck	-7204
▁eman	-7205
▁epip	-7206
▁fall	-7207
▁frag	-7208
▁frog	-7209
▁gymn	-7210
▁hisp	-7211
▁kick	-7212
▁pell	-7213
▁rebu	-7214
▁soap	-7215
▁spot	-7216
▁than	-7217
▁tymp	-7218
▁unop	-7219
▁unpa	-7220
▁unri	-7221
antage	-7222
arding	-7223
enders	-7224
enting	-7225
german	-7226
logist	-7227
voiced	-7228
▁alleg	-7229
▁alter	-7230
▁anglo	-7231
▁antid	-7232
▁capit	-7233
▁catch	-7234
▁conce	-7235
▁engra	-7236
▁gross	-7237
▁indic	-7238
▁liter	-7239
▁patri	-7240
▁preac	-7241
▁preen	-7242
▁scand	-7243
▁semib	-7244
▁spind	-7245
▁splan	-7246
▁spond	-7247
▁ungra	-7248
▁virtu	-7249
▁witch	-7250
crested	-7251
eshaped	-7252
otactic	-7253
rection	-7254
▁arteri	-7255
▁haemat	-7256
▁hammer	-7257
▁mening	-7258
▁nonpar	-7259
▁thread	-7260
▁twicep	-7261
rousness	-7262
spirited	-7263
asu	-7264
cts	-7265
egu	-7266
eis	-7267
eop	-7268
fla	-7269
fro	-7270
haz	-7271
igi	-7272
jew	-7273
jor	-7274
lyp	-7275
nli	-7276
nqu	-7277
tib	-7278
tou	-7279
ubi	-7280
yme	-7281
ypo	-7282
aine	-7283
amet	-7284
anta	-7285
come	-7286
ecep	-7287
elon	-7288
fter	-7289
gues	-7290
iali	-7291
iere	-7292
ippe	-7293
keys	-7294
lach	-7295
leta	-7296
make	-7297
nell	-7298
ntra	-7299
olly	-7300
osom	-7301
ount	-7302
ovel	-7303
proo	-7304
reek	-7305
rees	-7306
rida	-7307
rocy	-7308
shly	-7309
vine	-7310
ycle	-7311
year	-7312
▁agr	-7313
▁ami	-7314
▁aub	-7315
▁avi	-7316
▁job	-7317
▁kre	-7318
▁obs	-7319
▁pai	-7320
▁sow	-7321
▁tic	-7322
▁wak	-7323
▁wir	-7324
adian	-7325
alise	-7326
anist	-7327
apped	-7328
brook	-7329
escen	-7330
esign	-7331
estin	-7332
idate	-7333
ilian	-7334
illet	-7335
ogast	-7336
ubbed	-7337
uline	-7338
▁carn	-7339
▁chev	-7340
▁east	-7341
▁eigh	-7342
▁eury	-7343
▁fern	-7344
▁glut	-7345
▁holl	-7346
▁hyal	-7347
▁idol	-7348
▁isoc	-7349
▁leon	-7350
▁magn	-7351
▁pang	-7352
▁push	-7353
▁quer	-7354
▁rach	-7355
▁rick	-7356
▁scul	-7357
▁stop	-7358
▁tack	-7359
▁trus	-7360
▁unat	-7361
▁unem	-7362
▁unwe	-7363
▁winn	-7364
▁zinc	-7365
acetic	-7366
anders	-7367
enetic	-7368
estone	-7369
ethane	-7370
mented	-7371
ooking	-7372
posing	-7373
umping	-7374
▁brush	-7375
▁chanc	-7376
▁gastr	-7377
▁motor	-7378
▁music	-7379
▁nonen	-7380
▁overg	-7381
▁parac	-7382
▁parag	-7383
▁unequ	-7384
compens	-7385
itative	-7386
keeping	-7387
osaurus	-7388
version	-7389
welling	-7390
▁acetyl	-7391
▁conduc	-7392
▁cotton	-7393
▁string	-7394
▁travel	-7395
▁undisc	-7396
▁philosoph	-7397
ometrically	-7398
hb	-7399
hp	-7400
kf	-7401
kk	-7402
oq	-7403
td	-7404
ait	-7405
das	-7406
dol	-7407
egi	-7408
emy	-7409
kar	-7410
kas	-7411
mba	-7412
mpe	-7413
oal	-7414
ryl	-7415
sop	-7416
sus	-7417
udy	-7418
usk	-7419
vul	-7420
anus	-7421
ardo	-7422
arid	-7423
arra	-7424
aser	-7425
ashi	-7426
died	-7427
ecal	-7428
erve	-7429
grat	-7430
hors	-7431
idge	-7432
ircl	-7433
llow	-7434
mmer	-7435
olia	-7436
onit	-7437
phin	-7438
rand	-7439
ript	-7440
rter	-7441
tten	-7442
uasi	-7443
usal	-7444
user	-7445
uthe	-7446
valu	-7447
▁abi	-7448
▁aca	-7449
▁add	-7450
▁adi	-7451
▁ars	-7452
▁bah	-7453
▁his	-7454
▁ion	-7455
▁jag	-7456
▁jes	-7457
▁led	-7458
▁opi	-7459
▁ore	-7460
▁ort	-7461
▁pyg	-7462
▁see	-7463
▁uno	-7464
▁upt	-7465
▁vow	-7466
▁yaw	-7467
acker	-7468
activ	-7469
alike	-7470
asian	-7471
black	-7472
eared	-7473
etted	-7474
going	-7475
guard	-7476
iales	-7477
immun	-7478
ismus	-7479
ittle	-7480
logic	-7481
ocker	-7482
omere	-7483
ometr	-7484
opexy	-7485
romat	-7486
romet	-7487
ulent	-7488
▁amal	-7489
▁amar	-7490
▁amyl	-7491
▁bald	-7492
▁cach	-7493
▁crin	-7494
▁cruc	-7495
▁cten	-7496
▁cura	-7497
▁curv	-7498
▁fric	-7499
▁germ	-7500
▁goss	-7501
▁hood	-7502
▁lign	-7503
▁moll	-7504
▁mord	-7505
▁mund	-7506
▁phar	-7507
▁reve	-7508
▁snob	-7509
▁trem	-7510
▁turn	-7511
▁unel	-7512
▁unsm	-7513
▁unsw	-7514
ateral	-7515
atized	-7516
bearer	-7517
encing	-7518
omeric	-7519
orting	-7520
ouring	-7521
pering	-7522
ressed	-7523
rophot	-7524
tipped	-7525
ughter	-7526
▁antif	-7527
▁arbor	-7528
▁disse	-7529
▁endoc	-7530
▁forec	-7531
▁genti	-7532
▁hypoc	-7533
▁jacob	-7534
▁novel	-7535
▁overl	-7536
▁overt	-7537
▁paral	-7538
▁plumb	-7539
▁preob	-7540
▁proph	-7541
▁recur	-7542
▁straw	-7543
▁unimp	-7544
alizing	-7545
ariness	-7546
clusion	-7547
cutting	-7548
etermin	-7549
ifiable	-7550
ounding	-7551
utation	-7552
▁amphib	-7553
▁author	-7554
▁bitter	-7555
▁psycho	-7556
▁system	-7557
▁twicer	-7558
▁univers	-7559
gb	-7560
ahl	-7561
bab	-7562
cod	-7563
dry	-7564
dur	-7565
edy	-7566
eft	-7567
esk	-7568
exp	-7569
fes	-7570
iop	-7571
llu	-7572
lue	-7573
moc	-7574
mpo	-7575
pun	-7576
rli	-7577
rvi	-7578
ygo	-7579
acha	-7580
acul	-7581
adow	-7582
arab	-7583
bank	-7584
blen	-7585
carp	-7586
cian	-7587
cite	-7588
derm	-7589
eber	-7590
flex	-7591
ipes	-7592
itio	-7593
kies	-7594
kite	-7595
lery	-7596
npro	-7597
ocat	-7598
olut	-7599
oneu	-7600
opsy	-7601
pass	-7602
pere	-7603
pple	-7604
rals	-7605
rice	-7606
rily	-7607
ssed	-7608
tele	-7609
thed	-7610
tich	-7611
umat	-7612
uran	-7613
ustr	-7614
vale	-7615
view	-7616
vinc	-7617
zier	-7618
▁ail	-7619
▁asy	-7620
▁aul	-7621
▁cep	-7622
▁eve	-7623
▁hau	-7624
▁jab	-7625
▁lid	-7626
▁lof	-7627
▁raw	-7628
▁sme	-7629
▁tep	-7630
aried	-7631
chers	-7632
edged	-7633
ffing	-7634
force	-7635
gloss	-7636
hythm	-7637
icula	-7638
inist	-7639
missi	-7640
nosed	-7641
older	-7642
ollar	-7643
orian	-7644
orily	-7645
ronic	-7646
ticip	-7647
tisms	-7648
tivel	-7649
velop	-7650
▁besp	-7651
▁both	-7652
▁cens	-7653
▁cris	-7654
▁flin	-7655
▁homo	-7656
▁hosp	-7657
▁host	-7658
▁isop	-7659
▁mich	-7660
▁muss	-7661
▁odor	-7662
▁pars	-7663
▁sang	-7664
▁scop	-7665
▁shri	-7666
▁stur	-7667
▁swin	-7668
▁toll	-7669
▁ungr	-7670
▁unsu	-7671
▁wors	-7672
acanth	-7673
arched	-7674
archic	-7675
fiable	-7676
graphy	-7677
idence	-7678
inetic	-7679
ngness	-7680
unders	-7681
veined	-7682
▁child	-7683
▁cyclo	-7684
▁diver	-7685
▁misre	-7686
▁monop	-7687
▁reins	-7688
▁sides	-7689
▁stran	-7690
▁thumb	-7691
▁train	-7692
▁uncal	-7693
iteness	-7694
ression	-7695
urgical	-7696
▁append	-7697
▁contro	-7698
▁copper	-7699
▁galact	-7700
aciously	-7701
rational	-7702
▁superin	-7703
astically	-7704
mf	-7705
atz	-7706
chl	-7707
dre	-7708
ege	-7709
elp	-7710
evo	-7711
eys	-7712
hev	-7713
hle	-7714
hyt	-7715
ibb	-7716
lne	-7717
lta	-7718
mig	-7719
mpa	-7720
ndu	-7721
oup	-7722
owa	-7723
reb	-7724
rms	-7725
smi	-7726
tec	-7727
tun	-7728
udg	-7729
uru	-7730
yna	-7731
▁aj	-7732
agle	-7733
aint	-7734
amph	-7735
arte	-7736
aths	-7737
axis	-7738
culp	-7739
ebra	-7740
ebri	-7741
ecol	-7742
ecor	-7743
erob	-7744
erre	-7745
feas	-7746
fool	-7747
icid	-7748
icol	-7749
igan	-7750
ishe	-7751
leth	-7752
nant	-7753
nick	-7754
oser	-7755
otch	-7756
othy	-7757
otro	-7758
owns	-7759
pies	-7760
rawn	-7761
reas	-7762
reng	-7763
ropo	-7764
sail	-7765
tire	-7766
ucks	-7767
usia	-7768
vell	-7769
will	-7770
▁abb	-7771
▁aga	-7772
▁api	-7773
▁azo	-7774
▁bli	-7775
▁dag	-7776
▁gou	-7777
▁heg	-7778
▁jum	-7779
▁kib	-7780
▁lem	-7781
▁naz	-7782
▁now	-7783
▁oen	-7784
▁ont	-7785
▁rim	-7786
▁rom	-7787
▁sma	-7788
▁sty	-7789
▁sut	-7790
▁tod	-7791
▁unk	-7792
▁yam	-7793
aches	-7794
athem	-7795
athic	-7796
atted	-7797
cting	-7798
eterm	-7799
hoods	-7800
inize	-7801
iscop	-7802
ishop	-7803
ismic	-7804
nered	-7805
odist	-7806
odous	-7807
onomy	-7808
orned	-7809
ouses	-7810
physi	-7811
rates	-7812
scrib	-7813
teria	-7814
union	-7815
ushes	-7816
▁bent	-7817
▁bord	-7818
▁cart	-7819
▁cook	-7820
▁cuck	-7821
▁defl	-7822
▁fond	-7823
▁gest	-7824
▁hyps	-7825
▁isot	-7826
▁lady	-7827
▁mens	-7828
▁oliv	-7829
▁remo	-7830
▁repe	-7831
▁sant	-7832
▁sass	-7833
▁scre	-7834
▁seri	-7835
▁shak	-7836
▁smok	-7837
▁tank	-7838
▁tool	-7839
▁unpe	-7840
▁unpo	-7841
▁wher	-7842
chiest	-7843
entral	-7844
ialist	-7845
onucle	-7846
oxygen	-7847
rative	-7848
ridden	-7849
rophic	-7850
uously	-7851
urious	-7852
▁arach	-7853
▁brady	-7854
▁calam	-7855
▁dress	-7856
▁exper	-7857
▁femin	-7858
▁glass	-7859
▁induc	-7860
▁laure	-7861
▁marty	-7862
▁prost	-7863
▁spark	-7864
▁techn	-7865
▁thyro	-7866
▁trach	-7867
▁unmer	-7868
▁veget	-7869
atories	-7870
ensible	-7871
forming	-7872
respond	-7873
titious	-7874
▁comple	-7875
▁counte	-7876
▁crimin	-7877
▁mother	-7878
▁overin	-7879
▁reform	-7880
▁blephar	-7881
▁passion	-7882
▁thorough	-7883
km	-7884
pw	-7885
bby	-7886
dli	-7887
edu	-7888
efo	-7889
emn	-7890
ext	-7891
nga	-7892
nik	-7893
oud	-7894
ovi	-7895
psy	-7896
sla	-7897
sup	-7898
ubt	-7899
uen	-7900
xid	-7901
zzy	-7902
▁ug	-7903
▁xy	-7904
acin	-7905
amid	-7906
amus	-7907
arii	-7908
atos	-7909
boys	-7910
chos	-7911
cont	-7912
doms	-7913
eced	-7914
edge	-7915
efac	-7916
enal	-7917
endi	-7918
enyl	-7919
erit	-7920
esty	-7921
hair	-7922
heat	-7923
hlor	-7924
just	-7925
lina	-7926
maid	-7927
obar	-7928
octa	-7929
oing	-7930
ondi	-7931
onge	-7932
opes	-7933
opha	-7934
orch	-7935
outh	-7936
rast	-7937
scul	-7938
shop	-7939
sten	-7940
step	-7941
unds	-7942
vene	-7943
walk	-7944
▁arr	-7945
▁bap	-7946
▁cay	-7947
▁doo	-7948
▁eud	-7949
▁gom	-7950
▁hou	-7951
▁jay	-7952
▁kle	-7953
▁kno	-7954
▁lug	-7955
▁rif	-7956
▁roy	-7957
▁swi	-7958
▁tid	-7959
▁wee	-7960
▁wri	-7961
acous	-7962
anthe	-7963
bered	-7964
birds	-7965
charg	-7966
dling	-7967
esome	-7968
grade	-7969
icide	-7970
iliar	-7971
immer	-7972
liner	-7973
locks	-7974
olian	-7975
onics	-7976
oxide	-7977
plane	-7978
rooms	-7979
tired	-7980
tsman	-7981
▁bals	-7982
▁bary	-7983
▁brin	-7984
▁cren	-7985
▁econ	-7986
▁fine	-7987
▁fist	-7988
▁heat	-7989
▁mone	-7990
▁pard	-7991
▁rema	-7992
▁rere	-7993
▁salv	-7994
▁stom	-7995
▁tens	-7996
▁torm	-7997
▁wide	-7998
▁wine	-7999
▁wish	-8000
entate	-8001
erving	-8002
identi	-8003
isters	-8004
itious	-8005
laying	-8006
omotor	-8007
orable	-8008
rophil	-8009
titude	-8010
tribut	-8011
urance	-8012
▁anton	-8013
▁arbit	-8014
▁civil	-8015
▁dodec	-8016
▁equip	-8017
▁excit	-8018
▁galli	-8019
▁ghost	-8020
▁honor	-8021
▁infin	-8022
▁magne	-8023
▁match	-8024
▁mater	-8025
▁posts	-8026
▁resur	-8027
▁shell	-8028
▁snuff	-8029
▁undel	-8030
▁unind	-8031
▁unsur	-8032
ersonal	-8033
essness	-8034
ference	-8035
iculate	-8036
ophilic	-8037
tionary	-8038
▁crypto	-8039
▁flower	-8040
▁preind	-8041
▁quanti	-8042
▁stomat	-8043
▁subter	-8044
▁window	-8045
ophthalm	-8046
stricken	-8047
tibility	-8048
ubstanti	-8049
uousness	-8050
▁individ	-8051
ibilities	-8052
otherapeu	-8053
ij	-8054
kr	-8055
lr	-8056
mt	-8057
vs	-8058
wc	-8059
ckl	-8060
elc	-8061
fet	-8062
gma	-8063
hep	-8064
hio	-8065
ilk	-8066
leu	-8067
lib	-8068
nsc	-8069
nsh	-8070
nul	-8071
nve	-8072
onk	-8073
rks	-8074
rym	-8075
sep	-8076
seu	-8077
spa	-8078
upa	-8079
yas	-8080
▁ms	-8081
▁oe	-8082
acke	-8083
atit	-8084
chic	-8085
clam	-8086
conc	-8087
desc	-8088
entl	-8089
ereb	-8090
erly	-8091
evil	-8092
file	-8093
hite	-8094
imit	-8095
inos	-8096
iths	-8097
loqu	-8098
ntic	-8099
obas	-8100
onid	-8101
ostr	-8102
pipe	-8103
rade	-8104
rels	-8105
ribu	-8106
rish	-8107
ront	-8108
seal	-8109
sier	-8110
sign	-8111
tual	-8112
uced	-8113
ugal	-8114
uish	-8115
▁ane	-8116
▁ara	-8117
▁bai	-8118
▁cet	-8119
▁dop	-8120
▁egg	-8121
▁get	-8122
▁laz	-8123
▁lur	-8124
▁mau	-8125
▁mop	-8126
▁myr	-8127
▁nuc	-8128
▁opt	-8129
▁rin	-8130
▁rut	-8131
▁sak	-8132
▁tec	-8133
▁tok	-8134
▁wes	-8135
aceou	-8136
actin	-8137
aller	-8138
balls	-8139
belie	-8140
chial	-8141
compl	-8142
crust	-8143
elous	-8144
erine	-8145
estra	-8146
iance	-8147
icing	-8148
iliac	-8149
illin	-8150
limat	-8151
odian	-8152
ollen	-8153
osper	-8154
plant	-8155
riage	-8156
▁aber	-8157
▁alli	-8158
▁arab	-8159
▁bold	-8160
▁cary	-8161
▁coag	-8162
▁cocc	-8163
▁comb	-8164
▁deut	-8165
▁dull	-8166
▁firm	-8167
▁grow	-8168
▁guid	-8169
▁hans	-8170
▁heav	-8171
▁hend	-8172
▁inad	-8173
▁mish	-8174
▁mont	-8175
▁nail	-8176
▁pian	-8177
▁rapt	-8178
▁scat	-8179
▁seam	-8180
▁siph	-8181
▁spra	-8182
▁stem	-8183
▁subm	-8184
▁tann	-8185
▁tars	-8186
▁unca	-8187
▁vice	-8188
▁xiph	-8189
atidae	-8190
charge	-8191
church	-8192
culate	-8193
enzene	-8194
iously	-8195
oderma	-8196
ostome	-8197
stones	-8198
syllab	-8199
ulable	-8200
▁alkal	-8201
▁astro	-8202
▁camel	-8203
▁chuck	-8204
▁const	-8205
▁court	-8206
▁entom	-8207
▁equil	-8208
▁forty	-8209
▁gnath	-8210
▁gramm	-8211
▁helic	-8212
▁hymen	-8213
▁initi	-8214
▁lingu	-8215
▁objec	-8216
▁other	-8217
▁refor	-8218
▁scrat	-8219
▁snake	-8220
▁spell	-8221
▁stron	-8222
▁swift	-8223
▁titan	-8224
▁touch	-8225
▁undef	-8226
▁ureth	-8227
▁verte	-8228
▁villa	-8229
ablenes	-8230
attered	-8231
cheeked	-8232
ellated	-8233
etalous	-8234
faction	-8235
itorial	-8236
ustrial	-8237
▁direct	-8238
▁hydrop	-8239
▁machin	-8240
▁nondis	-8241
▁propag	-8242
▁undist	-8243
▁pseudop	-8244
▁slender	-8245
producing	-8246
tiousness	-8247
▁noninter	-8248
gd	-8249
pb	-8250
wk	-8251
aem	-8252
cco	-8253
dul	-8254
eab	-8255
gge	-8256
gla	-8257
gna	-8258
hob	-8259
hun	-8260
irr	-8261
kil	-8262
loa	-8263
ncr	-8264
nio	-8265
npr	-8266
olk	-8267
oqu	-8268
orl	-8269
pig	-8270
rce	-8271
sum	-8272
tto	-8273
upl	-8274
vio	-8275
voy	-8276
xia	-8277
zia	-8278
▁ip	-8279
▁pn	-8280
acre	-8281
aeus	-8282
akin	-8283
alan	-8284
atro	-8285
care	-8286
cati	-8287
cism	-8288
crus	-8289
ddle	-8290
dest	-8291
eart	-8292
elan	-8293
eris	-8294
erup	-8295
evol	-8296
ewed	-8297
four	-8298
icit	-8299
igni	-8300
itig	-8301
itus	-8302
izab	-8303
llin	-8304
love	-8305
lown	-8306
mble	-8307
nery	-8308
nese	-8309
neys	-8310
nial	-8311
norm	-8312
oche	-8313
ocom	-8314
opos	-8315
pery	-8316
phus	-8317
pine	-8318
rote	-8319
tend	-8320
tiff	-8321
turb	-8322
type	-8323
unda	-8324
uris	-8325
zers	-8326
▁kur	-8327
▁nun	-8328
▁odd	-8329
▁org	-8330
▁sas	-8331
▁twe	-8332
▁wau	-8333
▁yok	-8334
andra	-8335
anish	-8336
aping	-8337
atite	-8338
block	-8339
brain	-8340
ellic	-8341
entic	-8342
eship	-8343
grand	-8344
iasis	-8345
icent	-8346
idden	-8347
ilion	-8348
illie	-8349
odrom	-8350
ophot	-8351
orist	-8352
ostal	-8353
otten	-8354
oused	-8355
phyte	-8356
rache	-8357
rized	-8358
terio	-8359
thead	-8360
toria	-8361
ugges	-8362
ustic	-8363
▁astr	-8364
▁cric	-8365
▁enne	-8366
▁fati	-8367
▁ford	-8368
▁frig	-8369
▁gour	-8370
▁hect	-8371
▁hold	-8372
▁illi	-8373
▁impe	-8374
▁lanc	-8375
▁lord	-8376
▁mary	-8377
▁moor	-8378
▁muck	-8379
▁myrm	-8380
▁quat	-8381
▁sial	-8382
▁tuss	-8383
▁ured	-8384
▁uter	-8385
▁writ	-8386
boards	-8387
cultiv	-8388
essing	-8389
gerous	-8390
ialism	-8391
ighter	-8392
igraph	-8393
illate	-8394
ocular	-8395
olitan	-8396
ometri	-8397
optera	-8398
otheca	-8399
stream	-8400
terial	-8401
tiform	-8402
tistic	-8403
▁admin	-8404
▁antim	-8405
▁asser	-8406
▁blank	-8407
▁cerat	-8408
▁flesh	-8409
▁guard	-8410
▁house	-8411
▁large	-8412
▁natur	-8413
▁reper	-8414
▁retra	-8415
▁seism	-8416
▁semit	-8417
▁sider	-8418
▁tachy	-8419
▁trust	-8420
▁uncap	-8421
hydrate	-8422
ignific	-8423
reading	-8424
visaged	-8425
▁finger	-8426
▁indisc	-8427
▁priest	-8428
▁second	-8429
▁thorac	-8430
ocentric	-8431
▁branchi	-8432
▁stomach	-8433
▁through	-8434
omorphism	-8435
▁counters	-8436
gw	-8437
vu	-8438
ww	-8439
zu	-8440
cki	-8441
cov	-8442
deb	-8443
dex	-8444
ebu	-8445
egg	-8446
egr	-8447
eru	-8448
ffl	-8449
idy	-8450
kia	-8451
max	-8452
nfe	-8453
nso	-8454
opr	-8455
pia	-8456
rci	-8457
saw	-8458
tah	-8459
tli	-8460
tua	-8461
uet	-8462
utr	-8463
xin	-8464
▁oz	-8465
amas	-8466
anol	-8467
asta	-8468
atte	-8469
chet	-8470
coph	-8471
dell	-8472
dled	-8473
eath	-8474
endo	-8475
ervi	-8476
eved	-8477
fuln	-8478
heet	-8479
hine	-8480
idei	-8481
inct	-8482
iric	-8483
isis	-8484
itim	-8485
ivor	-8486
lack	-8487
lash	-8488
mant	-8489
olip	-8490
orld	-8491
osep	-8492
para	-8493
part	-8494
plen	-8495
plot	-8496
prom	-8497
rete	-8498
ridi	-8499
tenu	-8500
tres	-8501
uctu	-8502
yish	-8503
▁ala	-8504
▁alf	-8505
▁alt	-8506
▁biv	-8507
▁boc	-8508
▁cis	-8509
▁dov	-8510
▁fix	-8511
▁jas	-8512
▁jen	-8513
▁lec	-8514
▁lom	-8515
▁lox	-8516
▁poe	-8517
▁ted	-8518
▁zap	-8519
▁zin	-8520
actor	-8521
allen	-8522
arsal	-8523
cated	-8524
derer	-8525
eaded	-8526
enary	-8527
ework	-8528
gness	-8529
odied	-8530
ophon	-8531
orsal	-8532
otric	-8533
raced	-8534
rator	-8535
rayed	-8536
roned	-8537
thing	-8538
tribu	-8539
umped	-8540
urely	-8541
urred	-8542
ushed	-8543
wound	-8544
ylate	-8545
▁asse	-8546
▁bark	-8547
▁bean	-8548
▁chit	-8549
▁cork	-8550
▁craw	-8551
▁dysp	-8552
▁hamm	-8553
▁holo	-8554
▁laur	-8555
▁leng	-8556
▁meso	-8557
▁musc	-8558
▁near	-8559
▁norm	-8560
▁palp	-8561
▁pond	-8562
▁puls	-8563
▁rene	-8564
▁scol	-8565
▁scur	-8566
▁serm	-8567
▁shag	-8568
▁slop	-8569
▁subg	-8570
▁supp	-8571
▁vacu	-8572
▁wast	-8573
antism	-8574
atches	-8575
driven	-8576
horned	-8577
hydric	-8578
imetry	-8579
inable	-8580
ularia	-8581
vestig	-8582
▁cover	-8583
▁dough	-8584
▁exped	-8585
▁fever	-8586
▁flood	-8587
▁foret	-8588
▁hered	-8589
▁liver	-8590
▁lumin	-8591
▁manif	-8592
▁metac	-8593
▁narco	-8594
▁never	-8595
▁nonli	-8596
▁offic	-8597
▁petro	-8598
▁pinch	-8599
▁satur	-8600
▁subin	-8601
▁sword	-8602
▁theor	-8603
▁tiger	-8604
▁undep	-8605
▁unstr	-8606
athetic	-8607
bellied	-8608
gnostic	-8609
mercial	-8610
optosis	-8611
ostatic	-8612
pressed	-8613
▁columb	-8614
▁discom	-8615
▁harmon	-8616
▁hyperc	-8617
▁methyl	-8618
▁micros	-8619
▁nondec	-8620
▁nontra	-8621
▁sorrow	-8622
▁sphaer	-8623
▁twiced	-8624
breasted	-8625
hydrogen	-8626
ophilous	-8627
▁chromat	-8628
▁spermat	-8629
fulnesses	-8630
ographies	-8631
▁gentleman	-8632
aen	-8633
anz	-8634
aze	-8635
enb	-8636
ewi	-8637
fib	-8638
gab	-8639
gem	-8640
gur	-8641
hiz	-8642
hne	-8643
inv	-8644
irk	-8645
jam	-8646
jar	-8647
jou	-8648
lau	-8649
mbl	-8650
nfl	-8651
ngo	-8652
nny	-8653
nvi	-8654
pea	-8655
ppi	-8656
rba	-8657
shy	-8658
sle	-8659
tap	-8660
toe	-8661
toi	-8662
tot	-8663
ucu	-8664
yma	-8665
yto	-8666
zza	-8667
▁aq	-8668
▁oa	-8669
▁vu	-8670
▁xa	-8671
▁xe	-8672
ados	-8673
amon	-8674
antl	-8675
aree	-8676
avel	-8677
blet	-8678
cken	-8679
conf	-8680
eces	-8681
eing	-8682
empl	-8683
enly	-8684
enty	-8685
erge	-8686
ermi	-8687
geal	-8688
heel	-8689
hued	-8690
iman	-8691
inis	-8692
lage	-8693
lane	-8694
leur	-8695
ngle	-8696
nine	-8697
offs	-8698
olum	-8699
opla	-8700
oras	-8701
orer	-8702
oure	-8703
rity	-8704
toph	-8705
uder	-8706
uler	-8707
urea	-8708
wide	-8709
ymic	-8710
zoon	-8711
▁aes	-8712
▁alo	-8713
▁apl	-8714
▁bia	-8715
▁cib	-8716
▁dyn	-8717
▁eas	-8718
▁ego	-8719
▁eme	-8720
▁fuc	-8721
▁gip	-8722
▁jin	-8723
▁kaz	-8724
▁let	-8725
▁mai	-8726
▁obe	-8727
▁opa	-8728
▁ott	-8729
▁pty	-8730
▁rup	-8731
▁seb	-8732
▁sis	-8733
▁upp	-8734
abbed	-8735
abled	-8736
amous	-8737
chyma	-8738
culin	-8739
dened	-8740
elism	-8741
eners	-8742
enian	-8743
estic	-8744
gency	-8745
herit	-8746
ifoli	-8747
igger	-8748
ilers	-8749
istor	-8750
legia	-8751
oblas	-8752
phere	-8753
siest	-8754
templ	-8755
teral	-8756
ucing	-8757
ulant	-8758
unged	-8759
upers	-8760
wheel	-8761
▁acon	-8762
▁alls	-8763
▁anat	-8764
▁angu	-8765
▁appr	-8766
▁besh	-8767
▁butt	-8768
▁chen	-8769
▁farm	-8770
▁fasc	-8771
▁fill	-8772
▁flax	-8773
▁folk	-8774
▁gain	-8775
▁goth	-8776
▁grad	-8777
▁keel	-8778
▁mall	-8779
▁mane	-8780
▁misf	-8781
▁moss	-8782
▁plen	-8783
▁plut	-8784
▁prol	-8785
▁prud	-8786
▁root	-8787
▁rust	-8788
▁stic	-8789
▁suba	-8790
▁teas	-8791
▁terr	-8792
▁tung	-8793
▁twof	-8794
▁ungl	-8795
▁yard	-8796
branch	-8797
establ	-8798
genous	-8799
gnosis	-8800
ilding	-8801
iliate	-8802
orning	-8803
otechn	-8804
prehen	-8805
ulator	-8806
unning	-8807
walled	-8808
wright	-8809
▁autoc	-8810
▁cater	-8811
▁chori	-8812
▁chris	-8813
▁circu	-8814
▁conch	-8815
▁dacry	-8816
▁fancy	-8817
▁lapar	-8818
▁nonpr	-8819
▁nonte	-8820
▁nymph	-8821
▁outof	-8822
▁paran	-8823
▁selfp	-8824
▁solen	-8825
▁stern	-8826
▁uncor	-8827
▁unins	-8828
▁unrep	-8829
▁unten	-8830
▁untri	-8831
endable	-8832
iformes	-8833
lecting	-8834
onville	-8835
vention	-8836
▁analog	-8837
▁apolog	-8838
▁contin	-8839
▁conver	-8840
▁cylind	-8841
▁divers	-8842
▁glycer	-8843
▁hollow	-8844
▁letter	-8845
▁nonass	-8846
▁physic	-8847
▁pollin	-8848
▁thirty	-8849
▁twelve	-8850
american	-8851
ditional	-8852
hibition	-8853
ongering	-8854
▁overcom	-8855
▁staphyl	-8856
▁theolog	-8857
ifferenti	-8858
intellect	-8859
plication	-8860
▁phosphor	-8861
ifications	-8862
ocephalous	-8863
cd	-8864
fp	-8865
wm	-8866
awl	-8867
cog	-8868
ddl	-8869
efi	-8870
epy	-8871
fee	-8872
gid	-8873
hod	-8874
iod	-8875
nah	-8876
nct	-8877
nog	-8878
nsa	-8879
pad	-8880
poi	-8881
sif	-8882
sip	-8883
soc	-8884
thm	-8885
tne	-8886
utu	-8887
zoo	-8888
abas	-8889
acan	-8890
acts	-8891
agic	-8892
ambi	-8893
apit	-8894
beat	-8895
carb	-8896
ecur	-8897
elik	-8898
eran	-8899
ethe	-8900
etus	-8901
feed	-8902
hell	-8903
hers	-8904
hire	-8905
iang	-8906
icke	-8907
itte	-8908
legi	-8909
lend	-8910
leys	-8911
llar	-8912
mond	-8913
ocin	-8914
omus	-8915
ooth	-8916
orie	-8917
reme	-8918
ropl	-8919
ropy	-8920
rtic	-8921
rypt	-8922
take	-8923
tant	-8924
turn	-8925
vier	-8926
vity	-8927
wald	-8928
wife	-8929
ynia	-8930
▁amy	-8931
▁bov	-8932
▁dai	-8933
▁ecc	-8934
▁eel	-8935
▁fag	-8936
▁foo	-8937
▁fos	-8938
▁gag	-8939
▁gid	-8940
▁gog	-8941
▁gos	-8942
▁gua	-8943
▁jib	-8944
▁kai	-8945
▁lys	-8946
▁mia	-8947
▁mog	-8948
▁nil	-8949
▁odo	-8950
▁oli	-8951
▁ord	-8952
▁pia	-8953
▁poc	-8954
▁ray	-8955
▁rho	-8956
▁tig	-8957
arine	-8958
count	-8959
entry	-8960
gonal	-8961
grave	-8962
inose	-8963
ionic	-8964
jawed	-8965
joint	-8966
mming	-8967
nical	-8968
omete	-8969
omies	-8970
osely	-8971
riest	-8972
teryg	-8973
ugger	-8974
urgic	-8975
ygdal	-8976
▁abst	-8977
▁alve	-8978
▁arra	-8979
▁athe	-8980
▁audi	-8981
▁aure	-8982
▁bash	-8983
▁bure	-8984
▁caes	-8985
▁chat	-8986
▁cinn	-8987
▁devi	-8988
▁disa	-8989
▁dumb	-8990
▁educ	-8991
▁flab	-8992
▁forb	-8993
▁forg	-8994
▁gale	-8995
▁gill	-8996
▁hagg	-8997
▁hund	-8998
▁isob	-8999
▁jail	-9000
▁kath	-9001
▁laud	-9002
▁life	-9003
▁macr	-9004
▁mans	-9005
▁mash	-9006
▁omni	-9007
▁pyth	-9008
▁rash	-9009
▁rese	-9010
▁ribb	-9011
▁roof	-9012
▁scen	-9013
▁shaw	-9014
▁snap	-9015
▁thra	-9016
▁torn	-9017
▁turf	-9018
▁unbo	-9019
▁unfo	-9020
▁viti	-9021
▁want	-9022
ardize	-9023
ellers	-9024
ornith	-9025
phosph	-9026
roofed	-9027
spoken	-9028
struct	-9029
unding	-9030
worked	-9031
▁autos	-9032
▁chaff	-9033
▁corro	-9034
▁decem	-9035
▁defer	-9036
▁equiv	-9037
▁gener	-9038
▁halff	-9039
▁lance	-9040
▁litho	-9041
▁malac	-9042
▁merch	-9043
▁misad	-9044
▁nonob	-9045
▁overh	-9046
▁param	-9047
▁polar	-9048
▁power	-9049
▁punct	-9050
▁reind	-9051
▁revis	-9052
▁sarco	-9053
▁sciss	-9054
▁smoke	-9055
▁track	-9056
▁troub	-9057
▁welle	-9058
ateship	-9059
imental	-9060
iparous	-9061
lective	-9062
legraph	-9063
liament	-9064
missive	-9065
ophonic	-9066
orially	-9067
portion	-9068
spotted	-9069
▁bright	-9070
▁compos	-9071
▁corpor	-9072
▁dactyl	-9073
▁disent	-9074
▁hetero	-9075
▁naphth	-9076
▁nonacc	-9077
▁nonpre	-9078
▁palaeo	-9079
▁prepar	-9080
▁presby	-9081
▁prolog	-9082
▁public	-9083
▁succin	-9084
▁superc	-9085
▁superm	-9086
▁syllab	-9087
▁willow	-9088
communic	-9089
endingly	-9090
ersville	-9091
rography	-9092
ualistic	-9093
▁convers	-9094
▁express	-9095
▁leather	-9096
odontidae	-9097
bf	-9098
bp	-9099
iw	-9100
xu	-9101
arv	-9102
awk	-9103
bio	-9104
bst	-9105
edg	-9106
edr	-9107
eex	-9108
efu	-9109
epl	-9110
erk	-9111
etu	-9112
gru	-9113
loi	-9114
mbr	-9115
mpi	-9116
mpr	-9117
nle	-9118
ntl	-9119
odu	-9120
ogl	-9121
ohn	-9122
rex	-9123
uco	-9124
uke	-9125
vex	-9126
web	-9127
yse	-9128
apes	-9129
arit	-9130
asth	-9131
atae	-9132
chio	-9133
dden	-9134
duct	-9135
ecta	-9136
edit	-9137
enit	-9138
iani	-9139
icip	-9140
ingo	-9141
itro	-9142
lder	-9143
legs	-9144
lick	-9145
life	-9146
lith	-9147
mies	-9148
mple	-9149
nged	-9150
ober	-9151
oddy	-9152
oker	-9153
olds	-9154
orat	-9155
otus	-9156
pens	-9157
pert	-9158
rane	-9159
reak	-9160
rmed	-9161
sick	-9162
toni	-9163
turi	-9164
uals	-9165
udic	-9166
ulla	-9167
uras	-9168
warm	-9169
▁ack	-9170
▁adm	-9171
▁age	-9172
▁atm	-9173
▁byr	-9174
▁cag	-9175
▁caj	-9176
▁dos	-9177
▁eli	-9178
▁ism	-9179
▁jah	-9180
▁jon	-9181
▁kos	-9182
▁kum	-9183
▁lyn	-9184
▁nub	-9185
▁nur	-9186
▁ope	-9187
▁ops	-9188
▁roc	-9189
▁sip	-9190
▁til	-9191
▁tog	-9192
▁vom	-9193
▁wah	-9194
arite	-9195
arred	-9196
asant	-9197
atian	-9198
axial	-9199
bless	-9200
boats	-9201
brush	-9202
ctive	-9203
ednes	-9204
erial	-9205
erted	-9206
gious	-9207
icize	-9208
ilver	-9209
known	-9210
nesse	-9211
oding	-9212
olded	-9213
orium	-9214
ortic	-9215
ouche	-9216
overs	-9217
oving	-9218
sperm	-9219
sport	-9220
tless	-9221
trate	-9222
utely	-9223
value	-9224
vious	-9225
weary	-9226
ystem	-9227
zable	-9228
▁bang	-9229
▁berg	-9230
▁buzz	-9231
▁chry	-9232
▁conj	-9233
▁dick	-9234
▁disf	-9235
▁exac	-9236
▁fork	-9237
▁foul	-9238
▁fris	-9239
▁gate	-9240
▁gree	-9241
▁hort	-9242
▁insu	-9243
▁meas	-9244
▁noni	-9245
▁poor	-9246
▁pulp	-9247
▁rank	-9248
▁roug	-9249
▁rush	-9250
▁sacc	-9251
▁sadd	-9252
▁sard	-9253
▁scin	-9254
▁seab	-9255
▁stub	-9256
▁surf	-9257
▁teet	-9258
▁teut	-9259
▁theo	-9260
▁tram	-9261
▁unha	-9262
▁vene	-9263
▁wagg	-9264
▁wave	-9265
▁wick	-9266
▁wise	-9267
▁zeal	-9268
alizes	-9269
atcher	-9270
ceable	-9271
icidal	-9272
inidae	-9273
leaves	-9274
lected	-9275
mechan	-9276
ochond	-9277
ochron	-9278
omagne	-9279
ophora	-9280
orated	-9281
raised	-9282
roscop	-9283
yellow	-9284
▁absol	-9285
▁ballo	-9286
▁canth	-9287
▁chain	-9288
▁chand	-9289
▁decom	-9290
▁expos	-9291
▁hypop	-9292
▁ineff	-9293
▁inten	-9294
▁labor	-9295
▁latin	-9296
▁ordin	-9297
▁outsh	-9298
▁plate	-9299
▁point	-9300
▁refer	-9301
▁satis	-9302
▁scrib	-9303
▁senti	-9304
▁separ	-9305
▁sphyg	-9306
▁stark	-9307
▁testi	-9308
▁thing	-9309
▁uninc	-9310
▁welld	-9311
entious	-9312
ighting	-9313
lobulin	-9314
obacter	-9315
opodous	-9316
osities	-9317
▁alumin	-9318
▁breast	-9319
▁critic	-9320
▁dextro	-9321
▁incomp	-9322
▁interm	-9323
▁liquid	-9324
▁method	-9325
▁oscill	-9326
▁parach	-9327
▁person	-9328
▁porphy	-9329
▁stream	-9330
▁subjec	-9331
▁temper	-9332
▁uncons	-9333
ecolored	-9334
estation	-9335
pressive	-9336
▁general	-9337
▁shallow	-9338
alisation	-9339
breathing	-9340
itiveness	-9341
struction	-9342
▁splanchn	-9343
gp	-9344
rz	-9345
anu	-9346
awi	-9347
azo	-9348
bbe	-9349
bbl	-9350
bok	-9351
ctr	-9352
dde	-9353
did	-9354
erh	-9355
fel	-9356
fen	-9357
fty	-9358
gir	-9359
git	-9360
gyn	-9361
hae	-9362
him	-9363
hog	-9364
ipt	-9365
isy	-9366
kit	-9367
lel	-9368
lte	-9369
mmi	-9370
nig	-9371
nil	-9372
nke	-9373
ppo	-9374
psi	-9375
reh	-9376
rho	-9377
wei	-9378
yde	-9379
ync	-9380
zol	-9381
▁cn	-9382
▁sv	-9383
▁uv	-9384
▁wu	-9385
adin	-9386
alty	-9387
arse	-9388
asma	-9389
bery	-9390
bolt	-9391
cant	-9392
cord	-9393
ctio	-9394
ctiv	-9395
date	-9396
draw	-9397
eaux	-9398
edne	-9399
entr	-9400
epro	-9401
erio	-9402
flag	-9403
fore	-9404
hily	-9405
hore	-9406
hrop	-9407
icin	-9408
ilat	-9409
ilie	-9410
inin	-9411
ipot	-9412
irrh	-9413
isci	-9414
itre	-9415
knot	-9416
lent	-9417
mans	-9418
mast	-9419
mium	-9420
mper	-9421
nati	-9422
ntin	-9423
oble	-9424
olla	-9425
olus	-9426
ombo	-9427
omys	-9428
onch	-9429
open	-9430
opus	-9431
osol	-9432
quam	-9433
qued	-9434
reli	-9435
rint	-9436
rise	-9437
sity	-9438
tage	-9439
tled	-9440
trum	-9441
usti	-9442
ytic	-9443
▁bev	-9444
▁ces	-9445
▁ery	-9446
▁exs	-9447
▁gat	-9448
▁got	-9449
▁hak	-9450
▁hit	-9451
▁hyg	-9452
▁ile	-9453
▁jou	-9454
▁kay	-9455
▁kha	-9456
▁kna	-9457
▁pum	-9458
▁quo	-9459
▁spu	-9460
▁wif	-9461
▁won	-9462
▁wry	-9463
▁yak	-9464
▁zir	-9465
acred	-9466
annel	-9467
antes	-9468
atica	-9469
belly	-9470
burnt	-9471
diest	-9472
ecund	-9473
erian	-9474
haped	-9475
ilite	-9476
ircul	-9477
iston	-9478
itize	-9479
itude	-9480
lived	-9481
menta	-9482
minth	-9483
ocarb	-9484
ogony	-9485
onies	-9486
oradi	-9487
orean	-9488
oried	-9489
otine	-9490
resol	-9491
retch	-9492
sable	-9493
sulph	-9494
tides	-9495
tists	-9496
toxic	-9497
ulted	-9498
▁aero	-9499
▁bart	-9500
▁basi	-9501
▁beet	-9502
▁blac	-9503
▁case	-9504
▁coex	-9505
▁deca	-9506
▁diac	-9507
▁dulc	-9508
▁feed	-9509
▁foli	-9510
▁frow	-9511
▁furn	-9512
▁goos	-9513
▁heel	-9514
▁knob	-9515
▁lath	-9516
▁lily	-9517
▁lumb	-9518
▁math	-9519
▁mira	-9520
▁much	-9521
▁nine	-9522
▁nord	-9523
▁paed	-9524
▁pans	-9525
▁petr	-9526
▁prog	-9527
▁pull	-9528
▁reap	-9529
▁sack	-9530
▁spel	-9531
▁stig	-9532
▁tass	-9533
▁tons	-9534
▁toot	-9535
▁unga	-9536
▁unho	-9537
▁whim	-9538
erated	-9539
ettled	-9540
finned	-9541
gement	-9542
ifiers	-9543
metric	-9544
ologis	-9545
rooted	-9546
▁adren	-9547
▁anast	-9548
▁arrow	-9549
▁benzo	-9550
▁calli	-9551
▁catac	-9552
▁catal	-9553
▁chang	-9554
▁coach	-9555
▁dicty	-9556
▁disen	-9557
▁eight	-9558
▁foreb	-9559
▁insti	-9560
▁ivory	-9561
▁memor	-9562
▁money	-9563
▁nemat	-9564
▁nonap	-9565
▁nonev	-9566
▁nonun	-9567
▁pagan	-9568
▁perig	-9569
▁prere	-9570
▁raven	-9571
▁reinc	-9572
▁roent	-9573
▁stout	-9574
▁tubul	-9575
▁unmar	-9576
▁vagin	-9577
▁wagon	-9578
esville	-9579
holding	-9580
ilicate	-9581
mitting	-9582
ochrome	-9583
orously	-9584
ropping	-9585
scribed	-9586
uncture	-9587
undered	-9588
urement	-9589
▁achrom	-9590
▁altern	-9591
▁argent	-9592
▁button	-9593
▁cortic	-9594
▁inform	-9595
▁inters	-9596
▁island	-9597
▁multis	-9598
▁oblong	-9599
▁perpet	-9600
▁planet	-9601
▁powder	-9602
▁propri	-9603
▁strait	-9604
agglutin	-9605
attering	-9606
ensively	-9607
opterous	-9608
▁chondro	-9609
▁quadrup	-9610
▁salping	-9611
heartedly	-9612
ognathous	-9613
▁crystall	-9614
cm	-9615
fb	-9616
fm	-9617
lh	-9618
aim	-9619
apl	-9620
apu	-9621
bec	-9622
cam	-9623
dim	-9624
eoc	-9625
hei	-9626
hts	-9627
iam	-9628
ibu	-9629
ncl	-9630
ndy	-9631
ogu	-9632
oir	-9633
orf	-9634
phr	-9635
pte	-9636
rau	-9637
rdo	-9638
stu	-9639
tep	-9640
tul	-9641
ubr	-9642
ugu	-9643
wom	-9644
▁ew	-9645
akis	-9646
alie	-9647
anno	-9648
aran	-9649
ardy	-9650
beck	-9651
berr	-9652
bias	-9653
chor	-9654
cive	-9655
ckle	-9656
ctic	-9657
dily	-9658
ecap	-9659
egal	-9660
eigh	-9661
elop	-9662
epar	-9663
erst	-9664
erti	-9665
ethn	-9666
gang	-9667
gray	-9668
gren	-9669
hero	-9670
icus	-9671
iple	-9672
ishi	-9673
ishn	-9674
lise	-9675
mato	-9676
mill	-9677
nose	-9678
phem	-9679
quen	-9680
ramm	-9681
rani	-9682
redi	-9683
reet	-9684
roto	-9685
sias	-9686
sine	-9687
sole	-9688
stop	-9689
thia	-9690
tole	-9691
ucin	-9692
ultu	-9693
unge	-9694
uron	-9695
uths	-9696
vera	-9697
vial	-9698
whis	-9699
▁agg	-9700
▁cof	-9701
▁dad	-9702
▁dau	-9703
▁deh	-9704
▁ela	-9705
▁epo	-9706
▁eti	-9707
▁kis	-9708
▁kot	-9709
▁mez	-9710
▁nau	-9711
▁peb	-9712
▁sce	-9713
▁uri	-9714
▁wam	-9715
▁yah	-9716
▁zar	-9717
apple	-9718
ardly	-9719
arran	-9720
asion	-9721
cohol	-9722
court	-9723
drawn	-9724
eeing	-9725
emoni	-9726
enses	-9727
entor	-9728
epith	-9729
eress	-9730
erize	-9731
glish	-9732
iesis	-9733
ifica	-9734
ilate	-9735
illon	-9736
inish	-9737
juven	-9738
loidy	-9739
lough	-9740
olled	-9741
phore	-9742
pless	-9743
ramed	-9744
rimon	-9745
riven	-9746
tempt	-9747
udate	-9748
uloid	-9749
ursed	-9750
utral	-9751
vable	-9752
weigh	-9753
worts	-9754
▁abra	-9755
▁anni	-9756
▁atom	-9757
▁celi	-9758
▁chiv	-9759
▁cool	-9760
▁fath	-9761
▁floc	-9762
▁flun	-9763
▁fres	-9764
▁goat	-9765
▁hypn	-9766
▁know	-9767
▁lach	-9768
▁ophi	-9769
▁phor	-9770
▁plot	-9771
▁pole	-9772
▁prac	-9773
▁scam	-9774
▁sero	-9775
▁slim	-9776
▁somn	-9777
▁squa	-9778
▁stum	-9779
▁suck	-9780
▁sulp	-9781
▁unav	-9782
▁upst	-9783
▁vall	-9784
alytic	-9785
arians	-9786
banded	-9787
ennial	-9788
ensual	-9789
ention	-9790
ervice	-9791
govern	-9792
ipping	-9793
istent	-9794
itched	-9795
itidae	-9796
jected	-9797
nowled	-9798
olater	-9799
onable	-9800
ophane	-9801
ophyta	-9802
oracic	-9803
ospasm	-9804
otaxis	-9805
othing	-9806
ounter	-9807
owered	-9808
quired	-9809
rigged	-9810
rotomy	-9811
temper	-9812
uation	-9813
▁anten	-9814
▁calor	-9815
▁eulog	-9816
▁event	-9817
▁fibro	-9818
▁fored	-9819
▁insur	-9820
▁minim	-9821
▁numer	-9822
▁orbit	-9823
▁paste	-9824
▁posth	-9825
▁queen	-9826
▁recal	-9827
▁rheum	-9828
▁smart	-9829
▁sugar	-9830
▁tough	-9831
▁tramp	-9832
▁treas	-9833
▁uneff	-9834
▁unvol	-9835
▁varic	-9836
anthous	-9837
bearded	-9838
erating	-9839
ercular	-9840
lighted	-9841
mentary	-9842
ogamous	-9843
oglobin	-9844
orphism	-9845
tsville	-9846
ualized	-9847
worship	-9848
▁chirop	-9849
▁conjug	-9850
▁convol	-9851
▁disemb	-9852
▁govern	-9853
▁granul	-9854
▁hibern	-9855
▁marble	-9856
▁meteor	-9857
▁multit	-9858
▁multiv	-9859
▁platin	-9860
▁ponder	-9861
▁revers	-9862
▁unpers	-9863
aneously	-9864
esthetic	-9865
ocephaly	-9866
onically	-9867
oriously	-9868
osarcoma	-9869
traction	-9870
▁antimon	-9871
▁evangel	-9872
▁parthen	-9873
▁serpent	-9874
▁sympath	-9875
tionality	-9876
encephalon	-9877
cn	-9878
kc	-9879
mr	-9880
avy	-9881
cky	-9882
efa	-9883
eos	-9884
ewe	-9885
ewo	-9886
fam	-9887
fas	-9888
gua	-9889
hte	-9890
ilm	-9891
jes	-9892
lef	-9893
lei	-9894
lyl	-9895
mbi	-9896
ndl	-9897
ngr	-9898
nir	-9899
nod	-9900
oya	-9901
ply	-9902
rei	-9903
rty	-9904
sab	-9905
shn	-9906
teo	-9907
ugn	-9908
upt	-9909
utz	-9910
zyg	-9911
▁cz	-9912
▁iz	-9913
▁mn	-9914
▁xi	-9915
adis	-9916
amia	-9917
ango	-9918
arde	-9919
asin	-9920
axed	-9921
bane	-9922
bent	-9923
boar	-9924
bran	-9925
card	-9926
cket	-9927
cond	-9928
cter	-9929
cult	-9930
cura	-9931
elis	-9932
elor	-9933
fact	-9934
harm	-9935
hart	-9936
hawk	-9937
hook	-9938
idel	-9939
isor	-9940
itol	-9941
laus	-9942
liqu	-9943
lyph	-9944
nage	-9945
nest	-9946
ocys	-9947
olan	-9948
onor	-9949
ontr	-9950
opat	-9951
orin	-9952
osty	-9953
oths	-9954
oves	-9955
paid	-9956
pate	-9957
phia	-9958
pret	-9959
rama	-9960
rams	-9961
rico	-9962
rodi	-9963
romo	-9964
rosp	-9965
scen	-9966
scur	-9967
sept	-9968
sser	-9969
stom	-9970
tabl	-9971
tful	-9972
uten	-9973
verb	-9974
wine	-9975
ypno	-9976
yses	-9977
ytes	-9978
▁asi	-9979
▁ava	-9980
▁cim	-9981
▁dah	-9982
▁elf	-9983
▁foc	-9984
▁hee	-9985
▁iri	-9986
▁jal	-9987
▁jos	-9988
▁miz	-9989
▁orb	-9990
▁pne	-9991
▁poi	-9992
▁pyl	-9993
▁rha	-9994
▁sev	-9995
▁upr	-9996
▁ved	-9997
▁vid	-9998
▁vot	-9999
acial	-10000
alier	-10001
andle	-10002
armon	-10003
azole	-10004
books	-10005
chief	-10006
dable	-10007
ebral	-10008
elers	-10009
endum	-10010
estro	-10011
eteor	-10012
ewood	-10013
exual	-10014
gates	-10015
ianth	-10016
ickle	-10017
idial	-10018
inage	-10019
iping	-10020
irrit	-10021
itect	-10022
iters	-10023
lable	-10024
layed	-10025
nized	-10026
ogger	-10027
onant	-10028
oodle	-10029
ostra	-10030
phali	-10031
pierc	-10032
poken	-10033
quire	-10034
rally	-10035
rette	-10036
rship	-10037
shoul	-10038
strom	-10039
tains	-10040
terer	-10041
tises	-10042
titis	-10043
udent	-10044
ulled	-10045
valid	-10046
▁abor	-10047
▁adel	-10048
▁anno	-10049
▁argy	-10050
▁aust	-10051
▁bant	-10052
▁beck	-10053
▁bism	-10054
▁bone	-10055
▁boom	-10056
▁brat	-10057
▁bulb	-10058
▁cess	-10059
▁colo	-10060
▁corr	-10061
▁crag	-10062
▁crum	-10063
▁cymb	-10064
▁deco	-10065
▁diph	-10066
▁embo	-10067
▁equi	-10068
▁eter	-10069
▁fide	-10070
▁fing	-10071
▁guan	-10072
▁guil	-10073
▁hagi	-10074
▁hete	-10075
▁hymn	-10076
▁inap	-10077
▁indo	-10078
▁join	-10079
▁knot	-10080
▁lace	-10081
▁lean	-10082
▁mack	-10083
▁meat	-10084
▁mega	-10085
▁mell	-10086
▁mild	-10087
▁moul	-10088
▁neoc	-10089
▁ozon	-10090
▁paro	-10091
▁pest	-10092
▁psil	-10093
▁psyc	-10094
▁rati	-10095
▁reem	-10096
▁reev	-10097
▁repa	-10098
▁sabb	-10099
▁seal	-10100
▁sect	-10101
▁stau	-10102
▁subl	-10103
▁ting	-10104
▁torr	-10105
▁trac	-10106
▁tunn	-10107
▁unbr	-10108
▁unbu	-10109
▁uner	-10110
▁unun	-10111
▁vass	-10112
▁weed	-10113
▁whin	-10114
▁worl	-10115
▁yell	-10116
browed	-10117
center	-10118
earing	-10119
erable	-10120
estric	-10121
gation	-10122
hipped	-10123
iaceae	-10124
igning	-10125
innate	-10126
limbed	-10127
marked	-10128
ophagy	-10129
ospond	-10130
ostoma	-10131
otonic	-10132
phonic	-10133
raceae	-10134
ringed	-10135
spirit	-10136
spring	-10137
turist	-10138
uccess	-10139
urally	-10140
ussian	-10141
ussing	-10142
▁aerob	-10143
▁blenn	-10144
▁blueb	-10145
▁cassi	-10146
▁chalk	-10147
▁chart	-10148
▁chees	-10149
▁cream	-10150
▁felic	-10151
▁flash	-10152
▁gland	-10153
▁gynec	-10154
▁hypno	-10155
▁malle	-10156
▁misin	-10157
▁olymp	-10158
▁paint	-10159
▁proud	-10160
▁quiet	-10161
▁relig	-10162
▁retic	-10163
▁satin	-10164
▁sight	-10165
▁slack	-10166
▁split	-10167
▁state	-10168
▁there	-10169
▁tongu	-10170
▁toxic	-10171
▁trape	-10172
▁trick	-10173
▁truck	-10174
▁trump	-10175
▁unaff	-10176
▁unoff	-10177
▁ventr	-10178
▁weigh	-10179
▁wound	-10180
amental	-10181
complex	-10182
iliated	-10183
ilities	-10184
ishable	-10185
otomous	-10186
oughted	-10187
phthong	-10188
raising	-10189
tongued	-10190
utative	-10191
▁archae	-10192
▁barbar	-10193
▁catech	-10194
▁common	-10195
▁duplic	-10196
▁noncor	-10197
▁pigeon	-10198
▁pteryg	-10199
▁recomp	-10200
▁shield	-10201
▁strang	-10202
▁syphil	-10203
▁underp	-10204
▁unself	-10205
▁vulcan	-10206
ariaceae	-10207
ationism	-10208
atorship	-10209
ellation	-10210
iflorous	-10211
iousness	-10212
otrophic	-10213
uricular	-10214
▁conserv	-10215
▁erythro	-10216
▁illumin	-10217
▁membran	-10218
▁pseudom	-10219
▁reinter	-10220
atization	-10221
ographist	-10222
▁hydrogen	-10223
adm	-10224
aha	-10225
amu	-10226
aru	-10227
bbi	-10228
dab	-10229
dif	-10230
efl	-10231
exi	-10232
gea	-10233
gli	-10234
god	-10235
iak	-10236
icy	-10237
ieu	-10238
ioc	-10239
kir	-10240
kno	-10241
mop	-10242
pee	-10243
poc	-10244
ppl	-10245
rak	-10246
rbi	-10247
rcu	-10248
rub	-10249
syc	-10250
tub	-10251
tud	-10252
uln	-10253
uor	-10254
urm	-10255
uzz	-10256
yso	-10257
▁ud	-10258
abel	-10259
adia	-10260
agia	-10261
agus	-10262
andr	-10263
anke	-10264
anto	-10265
arry	-10266
atan	-10267
best	-10268
bral	-10269
brea	-10270
bric	-10271
ceal	-10272
colo	-10273
cyon	-10274
dont	-10275
ebel	-10276
erne	-10277
etty	-10278
fill	-10279
firm	-10280
gnos	-10281
houl	-10282
inol	-10283
inqu	-10284
ithm	-10285
itta	-10286
join	-10287
lary	-10288
lege	-10289
mach	-10290
mira	-10291
nath	-10292
neck	-10293
nies	-10294
niti	-10295
obed	-10296
olli	-10297
opor	-10298
opyr	-10299
orge	-10300
osid	-10301
oval	-10302
poon	-10303
rame	-10304
rean	-10305
rede	-10306
riol	-10307
snes	-10308
styl	-10309
sure	-10310
tees	-10311
thly	-10312
tini	-10313
ucid	-10314
vari	-10315
wave	-10316
ylos	-10317
zati	-10318
▁abe	-10319
▁coe	-10320
▁edg	-10321
▁eri	-10322
▁exa	-10323
▁fem	-10324
▁hae	-10325
▁iro	-10326
▁jim	-10327
▁jov	-10328
▁jub	-10329
▁lym	-10330
▁nes	-10331
▁rai	-10332
▁riv	-10333
▁rop	-10334
▁soo	-10335
▁tav	-10336
▁tos	-10337
▁tyr	-10338
▁wab	-10339
▁wap	-10340
acism	-10341
adder	-10342
apist	-10343
arsen	-10344
brate	-10345
cotic	-10346
domin	-10347
ecret	-10348
enize	-10349
entil	-10350
forms	-10351
gence	-10352
hered	-10353
inity	-10354
inoid	-10355
inoma	-10356
iplin	-10357
itone	-10358
metry	-10359
miest	-10360
niest	-10361
nting	-10362
olden	-10363
opaed	-10364
otate	-10365
otele	-10366
owner	-10367
pated	-10368
ption	-10369
rough	-10370
rring	-10371
ssion	-10372
tifer	-10373
ulati	-10374
unced	-10375
urite	-10376
usses	-10377
ustra	-10378
▁afor	-10379
▁agam	-10380
▁alum	-10381
▁anta	-10382
▁atta	-10383
▁blin	-10384
▁brus	-10385
▁cana	-10386
▁caps	-10387
▁cave	-10388
▁cest	-10389
▁chau	-10390
▁ches	-10391
▁chop	-10392
▁chow	-10393
▁core	-10394
▁diab	-10395
▁dict	-10396
▁dorm	-10397
▁dron	-10398
▁drug	-10399
▁farc	-10400
▁grid	-10401
▁hyph	-10402
▁illa	-10403
▁inch	-10404
▁jarg	-10405
▁luck	-10406
▁mate	-10407
▁mean	-10408
▁mise	-10409
▁mock	-10410
▁mush	-10411
▁numb	-10412
▁opin	-10413
▁perc	-10414
▁pine	-10415
▁priv	-10416
▁prod	-10417
▁ranc	-10418
▁sauc	-10419
▁shik	-10420
▁spit	-10421
▁subf	-10422
▁tant	-10423
▁thri	-10424
▁till	-10425
▁toph	-10426
▁unta	-10427
▁vend	-10428
alised	-10429
alysis	-10430
antine	-10431
arized	-10432
atherm	-10433
bright	-10434
direct	-10435
ellant	-10436
entize	-10437
estruc	-10438
eville	-10439
facing	-10440
ferred	-10441
hedral	-10442
heeled	-10443
ilitic	-10444
inders	-10445
itizen	-10446
letter	-10447
lities	-10448
lizing	-10449
locked	-10450
ophony	-10451
phenyl	-10452
riding	-10453
thesis	-10454
udging	-10455
urized	-10456
vented	-10457
verted	-10458
washed	-10459
▁arche	-10460
▁carab	-10461
▁chill	-10462
▁close	-10463
▁epiph	-10464
▁fluid	-10465
▁halfs	-10466
▁hypos	-10467
▁impar	-10468
▁inver	-10469
▁knock	-10470
▁malad	-10471
▁monot	-10472
▁nonan	-10473
▁orang	-10474
▁patch	-10475
▁penta	-10476
▁radic	-10477
▁retri	-10478
▁secre	-10479
▁sensi	-10480
▁serge	-10481
▁sport	-10482
▁staff	-10483
▁stink	-10484
▁subac	-10485
▁thous	-10486
▁unven	-10487
▁vicep	-10488
▁whole	-10489
achable	-10490
arizing	-10491
burning	-10492
clesias	-10493
current	-10494
duction	-10495
etrical	-10496
istence	-10497
jective	-10498
olithic	-10499
ometers	-10500
ophthal	-10501
ophysis	-10502
otrophy	-10503
ynchron	-10504
▁amphic	-10505
▁calcul	-10506
▁concre	-10507
▁gentle	-10508
▁overth	-10509
▁patron	-10510
▁phenyl	-10511
▁preced	-10512
▁promis	-10513
▁pulver	-10514
▁schist	-10515
▁semire	-10516
▁streng	-10517
▁tallow	-10518
▁turbin	-10519
▁undisp	-10520
▁waters	-10521
▁wester	-10522
analysis	-10523
archical	-10524
ationary	-10525
axillary	-10526
chemical	-10527
electric	-10528
ializing	-10529
likeness	-10530
rologist	-10531
▁continu	-10532
▁dispens	-10533
▁gelatin	-10534
▁labyrin	-10535
▁phalang	-10536
▁wellcon	-10537
ocephalic	-10538
ophyllous	-10539
philosoph	-10540
ationalism	-10541
oj	-10542
pf	-10543
rq	-10544
tv	-10545
zl	-10546
aed	-10547
agy	-10548
cau	-10549
cee	-10550
chu	-10551
dot	-10552
eho	-10553
gut	-10554
hym	-10555
iab	-10556
icc	-10557
igs	-10558
jah	-10559
lyc	-10560
oet	-10561
onu	-10562
ppy	-10563
rca	-10564
rgi	-10565
rto	-10566
ssu	-10567
stl	-10568
syn	-10569
ttl	-10570
uou	-10571
upi	-10572
yss	-10573
▁dc	-10574
▁oh	-10575
anks	-10576
aret	-10577
argy	-10578
arks	-10579
aron	-10580
bber	-10581
bies	-10582
bish	-10583
buck	-10584
culi	-10585
deli	-10586
ecar	-10587
etum	-10588
even	-10589
ewor	-10590
fies	-10591
flat	-10592
fles	-10593
gall	-10594
ghts	-10595
hamm	-10596
hism	-10597
ilar	-10598
imon	-10599
inea	-10600
iral	-10601
isia	-10602
itab	-10603
legm	-10604
lich	-10605
loom	-10606
ltra	-10607
ndis	-10608
neal	-10609
ofib	-10610
oide	-10611
ongo	-10612
osia	-10613
oxyl	-10614
phas	-10615
poly	-10616
rake	-10617
rape	-10618
rnal	-10619
rode	-10620
ruit	-10621
seen	-10622
stad	-10623
talk	-10624
tell	-10625
trat	-10626
umes	-10627
urst	-10628
usan	-10629
wink	-10630
yton	-10631
▁alp	-10632
▁alv	-10633
▁cys	-10634
▁dak	-10635
▁elo	-10636
▁env	-10637
▁epe	-10638
▁faw	-10639
▁gna	-10640
▁gyr	-10641
▁lik	-10642
▁lyc	-10643
▁mae	-10644
▁mea	-10645
▁mow	-10646
▁nai	-10647
▁omb	-10648
▁onc	-10649
▁scu	-10650
▁swo	-10651
▁tad	-10652
▁tah	-10653
▁urs	-10654
▁wiz	-10655
▁you	-10656
▁zan	-10657
acing	-10658
agree	-10659
annic	-10660
bilit	-10661
chily	-10662
close	-10663
eform	-10664
elles	-10665
erism	-10666
esser	-10667
essim	-10668
eteer	-10669
etown	-10670
ewise	-10671
ffers	-10672
grain	-10673
heade	-10674
hyoid	-10675
icist	-10676
igner	-10677
iidae	-10678
ilize	-10679
influ	-10680
iscus	-10681
itist	-10682
kling	-10683
kneed	-10684
leave	-10685
leyed	-10686
motic	-10687
mount	-10688
ochro	-10689
odram	-10690
quiet	-10691
storm	-10692
teous	-10693
treat	-10694
ubric	-10695
uddle	-10696
urned	-10697
ustom	-10698
uters	-10699
▁anom	-10700
▁aort	-10701
▁aven	-10702
▁bead	-10703
▁body	-10704
▁boul	-10705
▁cali	-10706
▁cash	-10707
▁clod	-10708
▁devo	-10709
▁diad	-10710
▁dian	-10711
▁dung	-10712
▁esch	-10713
▁film	-10714
▁finn	-10715
▁foam	-10716
▁goni	-10717
▁jess	-10718
▁khal	-10719
▁lech	-10720
▁left	-10721
▁maid	-10722
▁mith	-10723
▁pann	-10724
▁penc	-10725
▁phas	-10726
▁phth	-10727
▁poin	-10728
▁prun	-10729
▁psal	-10730
▁rang	-10731
▁regr	-10732
▁reob	-10733
▁revi	-10734
▁shut	-10735
▁silv	-10736
▁skel	-10737
▁skep	-10738
▁slum	-10739
▁spat	-10740
▁spre	-10741
▁sque	-10742
▁sync	-10743
▁targ	-10744
▁trow	-10745
▁truc	-10746
▁unas	-10747
▁unfa	-10748
▁unla	-10749
▁vand	-10750
abolic	-10751
achite	-10752
agogue	-10753
agonal	-10754
apital	-10755
atitis	-10756
beaked	-10757
employ	-10758
enched	-10759
enters	-10760
factor	-10761
ground	-10762
inking	-10763
ipital	-10764
istics	-10765
lectiv	-10766
moving	-10767
ocoele	-10768
ogenes	-10769
okines	-10770
olding	-10771
orical	-10772
pheric	-10773
pollin	-10774
posure	-10775
racies	-10776
rolled	-10777
souled	-10778
taught	-10779
ticity	-10780
ulness	-10781
ulsion	-10782
▁ambly	-10783
▁anter	-10784
▁carac	-10785
▁chair	-10786
▁cinch	-10787
▁coccy	-10788
▁crown	-10789
▁ethyl	-10790
▁exorc	-10791
▁inequ	-10792
▁intim	-10793
▁irish	-10794
▁irrec	-10795
▁lamin	-10796
▁langu	-10797
▁mille	-10798
▁mouth	-10799
▁neigh	-10800
▁nonsu	-10801
▁nulli	-10802
▁oblig	-10803
▁optim	-10804
▁phras	-10805
▁preim	-10806
▁preli	-10807
▁ready	-10808
▁resub	-10809
▁revol	-10810
▁scrap	-10811
▁semia	-10812
▁subad	-10813
▁undem	-10814
▁unref	-10815
▁vesic	-10816
▁wheat	-10817
▁willi	-10818
▁wrink	-10819
▁youth	-10820
acities	-10821
agement	-10822
angling	-10823
archist	-10824
ariidae	-10825
borough	-10826
ceptive	-10827
culated	-10828
imetric	-10829
odontia	-10830
olition	-10831
seeking	-10832
trolled	-10833
umption	-10834
▁advent	-10835
▁better	-10836
▁broken	-10837
▁carpet	-10838
▁combin	-10839
▁discre	-10840
▁encycl	-10841
▁explic	-10842
▁lichen	-10843
▁macrop	-10844
▁margar	-10845
▁mesmer	-10846
▁nonrec	-10847
▁orange	-10848
▁overde	-10849
▁parent	-10850
▁phaner	-10851
▁respon	-10852
▁rufous	-10853
▁selfin	-10854
▁starch	-10855
▁supple	-10856
▁tetrap	-10857
▁thromb	-10858
▁transi	-10859
▁trigon	-10860
▁twiceb	-10861
▁unprec	-10862
▁unprop	-10863
▁violet	-10864
▁virgin	-10865
▁whites	-10866
cephalic	-10867
inaceous	-10868
othermic	-10869
▁anthrac	-10870
▁episcop	-10871
▁pseudof	-10872
▁uniform	-10873
articular	-10874
ostenosis	-10875
roportion	-10876
▁material	-10877
▁supercon	-10878
▁christian	-10879
▁substanti	-10880
aq	-10881
bj	-10882
mh	-10883
aky	-10884
alg	-10885
axy	-10886
boo	-10887
coa	-10888
coo	-10889
eit	-10890
eol	-10891
etc	-10892
ggi	-10893
gno	-10894
hey	-10895
hik	-10896
hoc	-10897
kah	-10898
kal	-10899
lda	-10900
mee	-10901
mmo	-10902
mob	-10903
neo	-10904
nha	-10905
ntu	-10906
oby	-10907
raz	-10908
rha	-10909
rhy	-10910
riu	-10911
roe	-10912
rpo	-10913
tok	-10914
ulk	-10915
uph	-10916
veh	-10917
wag	-10918
ymo	-10919
▁cc	-10920
acit	-10921
acte	-10922
agre	-10923
anci	-10924
angl	-10925
anid	-10926
anin	-10927
anny	-10928
anum	-10929
arri	-10930
atas	-10931
atid	-10932
atie	-10933
atti	-10934
belt	-10935
bite	-10936
bore	-10937
cile	-10938
conn	-10939
cous	-10940
days	-10941
efer	-10942
embl	-10943
erci	-10944
erna	-10945
erou	-10946
ersi	-10947
eval	-10948
fare	-10949
gage	-10950
gily	-10951
heen	-10952
idym	-10953
inds	-10954
inst	-10955
iole	-10956
irus	-10957
ivis	-10958
lari	-10959
lead	-10960
lium	-10961
loro	-10962
mata	-10963
mong	-10964
moun	-10965
move	-10966
oben	-10967
odus	-10968
ohum	-10969
oint	-10970
olet	-10971
onar	-10972
onat	-10973
onst	-10974
oods	-10975
orou	-10976
pins	-10977
pira	-10978
rash	-10979
rave	-10980
rini	-10981
rmin	-10982
skin	-10983
tson	-10984
ulas	-10985
ulse	-10986
umar	-10987
usne	-10988
vous	-10989
xing	-10990
▁ard	-10991
▁bau	-10992
▁coi	-10993
▁eun	-10994
▁eus	-10995
▁fay	-10996
▁hei	-10997
▁hok	-10998
▁inh	-10999
▁kad	-11000
▁kom	-11001
▁kul	-11002
▁nah	-11003
▁nib	-11004
▁oat	-11005
▁ond	-11006
▁pak	-11007
▁ras	-11008
▁reo	-11009
▁ron	-11010
▁scl	-11011
▁siz	-11012
▁tee	-11013
▁ush	-11014
▁woe	-11015
▁wur	-11016
▁zeb	-11017
abber	-11018
abble	-11019
achie	-11020
acles	-11021
amped	-11022
andon	-11023
anter	-11024
bones	-11025
bored	-11026
cepts	-11027
chism	-11028
cline	-11029
cture	-11030
downs	-11031
eable	-11032
emata	-11033
encer	-11034
ergic	-11035
etary	-11036
eving	-11037
foots	-11038
front	-11039
fulne	-11040
gnath	-11041
ibbed	-11042
icorn	-11043
issol	-11044
ithal	-11045
itten	-11046
lecti	-11047
lenes	-11048
letic	-11049
lysin	-11050
mancy	-11051
ocoel	-11052
ontra	-11053
opsis	-11054
optim	-11055
ornis	-11056
orted	-11057
otypy	-11058
phoid	-11059
poses	-11060
power	-11061
quare	-11062
renic	-11063
rious	-11064
sburg	-11065
sibly	-11066
steri	-11067
stuff	-11068
urize	-11069
ylike	-11070
▁agon	-11071
▁bund	-11072
▁cari	-11073
▁caud	-11074
▁city	-11075
▁clim	-11076
▁crop	-11077
▁dias	-11078
▁diaz	-11079
▁enam	-11080
▁exec	-11081
▁fold	-11082
▁glas	-11083
▁glos	-11084
▁goal	-11085
▁grap	-11086
▁gyna	-11087
▁hapl	-11088
▁iner	-11089
▁inse	-11090
▁intu	-11091
▁lank	-11092
▁lash	-11093
▁leth	-11094
▁lick	-11095
▁limn	-11096
▁limp	-11097
▁matt	-11098
▁nest	-11099
▁nigg	-11100
▁nurs	-11101
▁pauc	-11102
▁phac	-11103
▁phag	-11104
▁pile	-11105
▁pont	-11106
▁preg	-11107
▁prei	-11108
▁pump	-11109
▁quot	-11110
▁reab	-11111
▁refl	-11112
▁rele	-11113
▁resc	-11114
▁rous	-11115
▁sans	-11116
▁scho	-11117
▁sili	-11118
▁sill	-11119
▁skew	-11120
▁sord	-11121
▁spac	-11122
▁tech	-11123
▁thim	-11124
▁trap	-11125
▁unis	-11126
▁unor	-11127
▁unti	-11128
▁wend	-11129
▁whal	-11130
▁zing	-11131
acchar	-11132
ailing	-11133
amping	-11134
emphas	-11135
enthus	-11136
hammer	-11137
icious	-11138
itably	-11139
lights	-11140
miness	-11141
ocytic	-11142
ograms	-11143
ousing	-11144
ribbed	-11145
riness	-11146
rophia	-11147
sation	-11148
seeing	-11149
stroke	-11150
uggest	-11151
urably	-11152
usable	-11153
veling	-11154
▁alloc	-11155
▁autom	-11156
▁botry	-11157
▁catap	-11158
▁chias	-11159
▁coffe	-11160
▁crook	-11161
▁defin	-11162
▁deriv	-11163
▁diplo	-11164
▁drift	-11165
▁excre	-11166
▁forer	-11167
▁franc	-11168
▁hypot	-11169
▁liber	-11170
▁metas	-11171
▁nitro	-11172
▁nonca	-11173
▁onych	-11174
▁palat	-11175
▁palli	-11176
▁parat	-11177
▁petal	-11178
▁reaff	-11179
▁recip	-11180
▁reviv	-11181
▁rhabd	-11182
▁scaph	-11183
▁shack	-11184
▁shrew	-11185
▁simpl	-11186
▁squaw	-11187
▁stall	-11188
▁stead	-11189
▁strid	-11190
▁tobac	-11191
▁unapp	-11192
▁undes	-11193
▁union	-11194
▁unsal	-11195
alising	-11196
atholic	-11197
changed	-11198
ellable	-11199
episcop	-11200
fashion	-11201
fertili	-11202
haunted	-11203
ionally	-11204
matical	-11205
ographs	-11206
ologica	-11207
omantic	-11208
ortable	-11209
tracted	-11210
uminous	-11211
working	-11212
writing	-11213
▁arthro	-11214
▁compar	-11215
▁declar	-11216
▁fibrin	-11217
▁gangli	-11218
▁hypoth	-11219
▁interd	-11220
▁microg	-11221
▁necess	-11222
▁overco	-11223
▁photos	-11224
▁precom	-11225
▁predic	-11226
▁proton	-11227
▁record	-11228
▁splend	-11229
▁switch	-11230
▁termin	-11231
▁timber	-11232
▁volcan	-11233
aldehyde	-11234
bilities	-11235
gressive	-11236
ocytosis	-11237
ophysial	-11238
oplasmic	-11239
ospheric	-11240
rystalli	-11241
▁alcohol	-11242
▁central	-11243
▁english	-11244
▁esophag	-11245
▁microph	-11246
▁quasiex	-11247
▁quasire	-11248
feathered	-11249
obranchia	-11250
scription	-11251
ulousness	-11252
usiveness	-11253
articulate	-11254
▁character	-11255
kp	-11256
vr	-11257
wf	-11258
yu	-11259
aln	-11260
aqu	-11261
cav	-11262
cka	-11263
det	-11264
dil	-11265
eic	-11266
fav	-11267
had	-11268
heo	-11269
kep	-11270
kov	-11271
lfi	-11272
mni	-11273
nma	-11274
npe	-11275
oak	-11276
oel	-11277
ouc	-11278
pow	-11279
rbe	-11280
roh	-11281
rso	-11282
rtr	-11283
sou	-11284
svi	-11285
tet	-11286
wax	-11287
wil	-11288
yce	-11289
yti	-11290
▁dw	-11291
adam	-11292
adar	-11293
adon	-11294
aile	-11295
ains	-11296
angs	-11297
bait	-11298
ceed	-11299
coun	-11300
ctin	-11301
drop	-11302
ebre	-11303
egra	-11304
eleg	-11305
emak	-11306
emet	-11307
erco	-11308
girl	-11309
grim	-11310
hone	-11311
icia	-11312
imes	-11313
inde	-11314
issu	-11315
itur	-11316
kiss	-11317
kled	-11318
lini	-11319
lose	-11320
meal	-11321
nton	-11322
ocho	-11323
ocle	-11324
odge	-11325
okin	-11326
ondo	-11327
orid	-11328
osti	-11329
othi	-11330
phid	-11331
phra	-11332
pile	-11333
pore	-11334
prin	-11335
prof	-11336
quir	-11337
rall	-11338
rics	-11339
ridg	-11340
robe	-11341
ropr	-11342
rred	-11343
rums	-11344
siti	-11345
ssly	-11346
tali	-11347
thre	-11348
tles	-11349
tura	-11350
ulia	-11351
umpy	-11352
vite	-11353
wers	-11354
wned	-11355
wove	-11356
▁ada	-11357
▁ase	-11358
▁cig	-11359
▁cud	-11360
▁dik	-11361
▁eag	-11362
▁elk	-11363
▁fon	-11364
▁hoc	-11365
▁inj	-11366
▁ino	-11367
▁jow	-11368
▁kap	-11369
▁ked	-11370
▁lae	-11371
▁lei	-11372
▁los	-11373
▁mab	-11374
▁nak	-11375
▁nea	-11376
▁nip	-11377
▁nou	-11378
▁nym	-11379
▁ory	-11380
▁pru	-11381
▁pry	-11382
▁sai	-11383
▁tek	-11384
▁toc	-11385
▁ump	-11386
▁wen	-11387
▁yog	-11388
▁ytt	-11389
▁zen	-11390
acoid	-11391
acral	-11392
allot	-11393
andry	-11394
antia	-11395
archs	-11396
atile	-11397
atise	-11398
bread	-11399
chman	-11400
dried	-11401
elion	-11402
ereal	-11403
espir	-11404
etail	-11405
faces	-11406
ffici	-11407
gated	-11408
gland	-11409
hibit	-11410
hiest	-11411
ianna	-11412
ietic	-11413
illas	-11414
isers	-11415
isian	-11416
marks	-11417
mines	-11418
nders	-11419
nosis	-11420
oglos	-11421
opard	-11422
orhin	-11423
osine	-11424
otter	-11425
ourag	-11426
pring	-11427
prise	-11428
range	-11429
reled	-11430
ribed	-11431
rocer	-11432
shape	-11433
ssing	-11434
techn	-11435
teran	-11436
trous	-11437
utory	-11438
venes	-11439
viron	-11440
ziest	-11441
▁agen	-11442
▁alca	-11443
▁apod	-11444
▁bann	-11445
▁besc	-11446
▁bour	-11447
▁bric	-11448
▁budd	-11449
▁copy	-11450
▁defe	-11451
▁demo	-11452
▁dens	-11453
▁diap	-11454
▁egyp	-11455
▁etym	-11456
▁faci	-11457
▁ferv	-11458
▁feud	-11459
▁fibr	-11460
▁fram	-11461
▁fret	-11462
▁gemm	-11463
▁grat	-11464
▁grum	-11465
▁harm	-11466
▁hide	-11467
▁horm	-11468
▁jung	-11469
▁kend	-11470
▁kirk	-11471
▁lipp	-11472
▁loph	-11473
▁lung	-11474
▁mail	-11475
▁make	-11476
▁mold	-11477
▁mole	-11478
▁monk	-11479
▁neop	-11480
▁peck	-11481
▁phae	-11482
▁phos	-11483
▁pied	-11484
▁pomp	-11485
▁purs	-11486
▁raff	-11487
▁rasp	-11488
▁remi	-11489
▁reth	-11490
▁samb	-11491
▁shan	-11492
▁shap	-11493
▁sine	-11494
▁smir	-11495
▁swif	-11496
▁tern	-11497
▁tolu	-11498
▁tors	-11499
▁unkn	-11500
▁unna	-11501
▁ural	-11502
▁view	-11503
▁yach	-11504
achron	-11505
amitic	-11506
angium	-11507
assing	-11508
atures	-11509
chisis	-11510
cultur	-11511
ensian	-11512
ersome	-11513
ficial	-11514
fulnes	-11515
glomer	-11516
harmon	-11517
hedron	-11518
hering	-11519
hyster	-11520
iliary	-11521
ineous	-11522
ircled	-11523
ishers	-11524
necked	-11525
nities	-11526
odacty	-11527
ossess	-11528
otropy	-11529
ported	-11530
ramine	-11531
shness	-11532
tician	-11533
tories	-11534
uating	-11535
ubbing	-11536
ushion	-11537
▁alder	-11538
▁amoeb	-11539
▁angio	-11540
▁broom	-11541
▁coral	-11542
▁crust	-11543
▁decor	-11544
▁exemp	-11545
▁farad	-11546
▁fract	-11547
▁gamet	-11548
▁grain	-11549
▁group	-11550
▁hemip	-11551
▁illeg	-11552
▁incur	-11553
▁insol	-11554
▁instr	-11555
▁intri	-11556
▁lepro	-11557
▁manip	-11558
▁metab	-11559
▁nebul	-11560
▁ortho	-11561
▁overn	-11562
▁penny	-11563
▁phone	-11564
▁pound	-11565
▁reven	-11566
▁space	-11567
▁spart	-11568
▁speck	-11569
▁stage	-11570
▁sting	-11571
▁strig	-11572
▁swell	-11573
▁theat	-11574
▁theri	-11575
▁unatt	-11576
▁unbar	-11577
▁unent	-11578
▁unsus	-11579
▁untre	-11580
▁verat	-11581
▁vital	-11582
arietal	-11583
atizing	-11584
atrices	-11585
eliness	-11586
entific	-11587
eringly	-11588
feeding	-11589
flowing	-11590
idities	-11591
judging	-11592
ographi	-11593
olation	-11594
omorpha	-11595
opodium	-11596
oseness	-11597
ostemon	-11598
roscope	-11599
ualness	-11600
umental	-11601
usively	-11602
winding	-11603
written	-11604
▁access	-11605
▁campan	-11606
▁candid	-11607
▁coffee	-11608
▁depart	-11609
▁dispar	-11610
▁disple	-11611
▁gallic	-11612
▁hydrom	-11613
▁justic	-11614
▁little	-11615
▁misapp	-11616
▁nonman	-11617
▁omphal	-11618
▁oyster	-11619
▁pepper	-11620
▁purple	-11621
▁rhynch	-11622
▁saddle	-11623
▁script	-11624
▁selfad	-11625
▁simple	-11626
▁sublim	-11627
▁supern	-11628
▁tailor	-11629
▁tantal	-11630
▁uncomm	-11631
▁underc	-11632
▁wellre	-11633
▁wither	-11634
ashioned	-11635
breaking	-11636
ensional	-11637
featured	-11638
formable	-11639
minister	-11640
otically	-11641
▁capital	-11642
▁diamond	-11643
▁homolog	-11644
▁hundred	-11645
▁liberal	-11646
▁nontran	-11647
▁prosely	-11648
▁quasiin	-11649
▁scatter	-11650
▁stercor	-11651
▁tempest	-11652
chemistry	-11653
ciousness	-11654
omorphous	-11655
urability	-11656
▁eleuther	-11657
handedness	-11658
obranchiate	-11659
iy	-11660
aer	-11661
aug	-11662
cei	-11663
cey	-11664
cow	-11665
cru	-11666
ddy	-11667
dus	-11668
eah	-11669
efy	-11670
geo	-11671
ggy	-11672
hac	-11673
icl	-11674
idg	-11675
igm	-11676
iog	-11677
moi	-11678
nak	-11679
nfi	-11680
npa	-11681
nun	-11682
oks	-11683
rda	-11684
rga	-11685
rox	-11686
ryo	-11687
teg	-11688
thu	-11689
uam	-11690
ugs	-11691
uka	-11692
uve	-11693
wen	-11694
wid	-11695
wra	-11696
xon	-11697
yot	-11698
zle	-11699
amme	-11700
aney	-11701
anit	-11702
apeu	-11703
arag	-11704
asco	-11705
beam	-11706
beth	-11707
bind	-11708
boks	-11709
cone	-11710
copy	-11711
dery	-11712
eate	-11713
ecup	-11714
edom	-11715
enar	-11716
enci	-11717
epig	-11718
eren	-11719
esho	-11720
felt	-11721
flav	-11722
forc	-11723
ggle	-11724
gica	-11725
heal	-11726
hoop	-11727
ibal	-11728
icap	-11729
icis	-11730
illu	-11731
inid	-11732
irst	-11733
ithy	-11734
itia	-11735
larg	-11736
lays	-11737
lify	-11738
llog	-11739
lore	-11740
maph	-11741
mere	-11742
miss	-11743
mith	-11744
mote	-11745
nabl	-11746
ncom	-11747
ngra	-11748
obic	-11749
ofer	-11750
ohem	-11751
olab	-11752
ooed	-11753
osts	-11754
ourn	-11755
ozoo	-11756
pain	-11757
peop	-11758
pera	-11759
play	-11760
quid	-11761
rali	-11762
rcum	-11763
reco	-11764
rtin	-11765
sati	-11766
scal	-11767
shin	-11768
site	-11769
tall	-11770
tand	-11771
titi	-11772
tius	-11773
tons	-11774
ubin	-11775
ubli	-11776
ucky	-11777
ugge	-11778
umps	-11779
unti	-11780
veni	-11781
xial	-11782
▁axi	-11783
▁bam	-11784
▁bej	-11785
▁dap	-11786
▁dud	-11787
▁dug	-11788
▁ecl	-11789
▁eis	-11790
▁err	-11791
▁eum	-11792
▁eva	-11793
▁fiv	-11794
▁fow	-11795
▁gif	-11796
▁kak	-11797
▁keb	-11798
▁koh	-11799
▁lax	-11800
▁mik	-11801
▁nev	-11802
▁pte	-11803
▁rex	-11804
▁ubi	-11805
▁wyn	-11806
adequ	-11807
alate	-11808
amino	-11809
ammed	-11810
antry	-11811
arted	-11812
asite	-11813
cardi	-11814
chair	-11815
elial	-11816
elier	-11817
ellid	-11818
ennia	-11819
eping	-11820
esman	-11821
estal	-11822
fault	-11823
ibles	-11824
imide	-11825
laden	-11826
ocate	-11827
ocket	-11828
ocyto	-11829
onent	-11830
onine	-11831
ophen	-11832
ordal	-11833
ortal	-11834
ousne	-11835
ozoic	-11836
pared	-11837
pendi	-11838
pherd	-11839
quain	-11840
quely	-11841
quisi	-11842
quist	-11843
raise	-11844
rican	-11845
rides	-11846
rines	-11847
romal	-11848
romic	-11849
rophi	-11850
seudo	-11851
uling	-11852
uries	-11853
utted	-11854
yland	-11855
▁acha	-11856
▁ache	-11857
▁andr	-11858
▁blan	-11859
▁brac	-11860
▁cata	-11861
▁cele	-11862
▁cerc	-11863
▁cous	-11864
▁cout	-11865
▁diop	-11866
▁dyst	-11867
▁ferr	-11868
▁foun	-11869
▁garg	-11870
▁gorg	-11871
▁gram	-11872
▁grin	-11873
▁gust	-11874
▁gutt	-11875
▁hass	-11876
▁hast	-11877
▁heal	-11878
▁horr	-11879
▁hubb	-11880
▁inob	-11881
▁iter	-11882
▁labi	-11883
▁lass	-11884
▁link	-11885
▁liss	-11886
▁lute	-11887
▁manc	-11888
▁ming	-11889
▁nitr	-11890
▁oven	-11891
▁perd	-11892
▁phry	-11893
▁pree	-11894
▁preh	-11895
▁qual	-11896
▁quis	-11897
▁rent	-11898
▁ruth	-11899
▁skir	-11900
▁stad	-11901
▁stee	-11902
▁subn	-11903
▁swee	-11904
▁syng	-11905
▁tamp	-11906
▁thes	-11907
▁twop	-11908
▁unge	-11909
▁unif	-11910
▁unno	-11911
▁unsi	-11912
▁unwi	-11913
▁warp	-11914
appers	-11915
arpous	-11916
atress	-11917
atrice	-11918
beaten	-11919
boring	-11920
consci	-11921
ecious	-11922
ecraft	-11923
eliber	-11924
enchym	-11925
filled	-11926
hydrin	-11927
ianize	-11928
iferou	-11929
ificat	-11930
ionize	-11931
ispers	-11932
judici	-11933
laimed	-11934
mitted	-11935
ofluor	-11936
ophobe	-11937
oscler	-11938
otyled	-11939
ranial	-11940
rimmed	-11941
sional	-11942
static	-11943
stitch	-11944
stract	-11945
tinted	-11946
trated	-11947
vation	-11948
▁analy	-11949
▁appar	-11950
▁armor	-11951
▁birth	-11952
▁brist	-11953
▁canal	-11954
▁canon	-11955
▁carry	-11956
▁chaet	-11957
▁chest	-11958
▁chlam	-11959
▁cliff	-11960
▁cress	-11961
▁disob	-11962
▁energ	-11963
▁equal	-11964
▁excur	-11965
▁faith	-11966
▁feder	-11967
▁floor	-11968
▁foreg	-11969
▁forth	-11970
▁fring	-11971
▁griff	-11972
▁hitch	-11973
▁incre	-11974
▁lenti	-11975
▁neura	-11976
▁perid	-11977
▁perme	-11978
▁phall	-11979
▁plect	-11980
▁postp	-11981
▁proth	-11982
▁rhomb	-11983
▁scrup	-11984
▁seren	-11985
▁stich	-11986
▁stric	-11987
▁tripl	-11988
▁unbro	-11989
▁uncle	-11990
▁unsec	-11991
▁upper	-11992
▁urban	-11993
▁vener	-11994
▁wella	-11995
▁welsh	-11996
▁worse	-11997
atorium	-11998
bergite	-11999
central	-12000
clusive	-12001
culture	-12002
endence	-12003
fronted	-12004
illumin	-12005
inating	-12006
osauria	-12007
philous	-12008
uliform	-12009
▁academ	-12010
▁alphab	-12011
▁antich	-12012
▁brachi	-12013
▁breath	-12014
▁cataph	-12015
▁custom	-12016
▁electr	-12017
▁fellow	-12018
▁foresh	-12019
▁fossil	-12020
▁frater	-12021
▁interl	-12022
▁multil	-12023
▁nonimp	-12024
▁observ	-12025
▁perine	-12026
▁predep	-12027
▁presup	-12028
▁reflex	-12029
▁slight	-12030
▁though	-12031
▁transl	-12032
▁transs	-12033
▁twicec	-12034
▁vulgar	-12035
ariously	-12036
ethylene	-12037
obranchi	-12038
oprotein	-12039
question	-12040
rophobia	-12041
▁amygdal	-12042
▁catalog	-12043
▁chicken	-12044
▁congreg	-12045
▁impress	-12046
▁monopol	-12047
▁nondisc	-12048
▁paradox	-12049
▁scratch	-12050
cephalous	-12051
indedness	-12052
itability	-12053
structive	-12054
▁particip	-12055
▁phantasm	-12056
▁phenomen	-12057
▁question	-12058
encephalic	-12059
rystalline	-12060
tivenesses	-12061
▁intellect	-12062
pd	-12063
uj	-12064
xh	-12065
ahu	-12066
atl	-12067
axe	-12068
cci	-12069
cif	-12070
dac	-12071
dew	-12072
ehe	-12073
eig	-12074
eim	-12075
epp	-12076
gum	-12077
hak	-12078
hig	-12079
hlo	-12080
jaw	-12081
kly	-12082
lma	-12083
lty	-12084
luo	-12085
mip	-12086
nau	-12087
nep	-12088
nfa	-12089
nfo	-12090
oac	-12091
onb	-12092
pta	-12093
rgo	-12094
rok	-12095
rtu	-12096
rva	-12097
ugi	-12098
ulc	-12099
von	-12100
xtr	-12101
yng	-12102
zzi	-12103
▁dm	-12104
▁rc	-12105
▁tc	-12106
▁zu	-12107
amis	-12108
aniz	-12109
anon	-12110
aphi	-12111
apop	-12112
arge	-12113
arro	-12114
atiz	-12115
avin	-12116
azin	-12117
bang	-12118
base	-12119
bate	-12120
bble	-12121
boom	-12122
boot	-12123
brow	-12124
cart	-12125
city	-12126
crib	-12127
dere	-12128
dnes	-12129
eads	-12130
edle	-12131
edra	-12132
ermo	-12133
ersp	-12134
esic	-12135
eudo	-12136
flic	-12137
gard	-12138
gies	-12139
gued	-12140
heer	-12141
herm	-12142
hyll	-12143
icar	-12144
imed	-12145
init	-12146
itly	-12147
lide	-12148
lind	-12149
mias	-12150
nica	-12151
oard	-12152
obot	-12153
onet	-12154
onga	-12155
onna	-12156
ooms	-12157
oons	-12158
opot	-12159
orns	-12160
orot	-12161
orum	-12162
otry	-12163
otto	-12164
pean	-12165
poin	-12166
pris	-12167
quad	-12168
reve	-12169
rino	-12170
rned	-12171
rush	-12172
sist	-12173
tear	-12174
than	-12175
tigu	-12176
uali	-12177
ucti	-12178
umbr	-12179
umni	-12180
vian	-12181
xide	-12182
ypes	-12183
zeal	-12184
▁aci	-12185
▁ate	-12186
▁cil	-12187
▁ede	-12188
▁fau	-12189
▁few	-12190
▁gry	-12191
▁him	-12192
▁hym	-12193
▁igu	-12194
▁inb	-12195
▁jak	-12196
▁kik	-12197
▁kun	-12198
▁obt	-12199
▁rhi	-12200
▁upd	-12201
▁upg	-12202
▁utr	-12203
▁wai	-12204
▁wei	-12205
▁zab	-12206
▁zer	-12207
▁zig	-12208
addle	-12209
aders	-12210
aemia	-12211
aggle	-12212
agnet	-12213
alter	-12214
alvan	-12215
arked	-12216
arter	-12217
ascul	-12218
avers	-12219
beard	-12220
elist	-12221
elium	-12222
ellia	-12223
ellus	-12224
elson	-12225
enish	-12226
erers	-12227
ernal	-12228
eroff	-12229
ethic	-12230
ethod	-12231
hness	-12232
iacal	-12233
icant	-12234
iders	-12235
imate	-12236
incip	-12237
inear	-12238
iners	-12239
ircle	-12240
isses	-12241
judge	-12242
labor	-12243
mical	-12244
mixed	-12245
nated	-12246
oform	-12247
ogeni	-12248
omist	-12249
omorp	-12250
ontic	-12251
opsia	-12252
ossed	-12253
pense	-12254
phase	-12255
ratio	-12256
rolls	-12257
thorn	-12258
tisan	-12259
tonia	-12260
tosis	-12261
udged	-12262
uffle	-12263
ughts	-12264
ummer	-12265
urian	-12266
veled	-12267
▁absc	-12268
▁acar	-12269
▁acti	-12270
▁adap	-12271
▁agit	-12272
▁ange	-12273
▁annu	-12274
▁bamb	-12275
▁bris	-12276
▁cara	-12277
▁care	-12278
▁chlo	-12279
▁cine	-12280
▁cose	-12281
▁cott	-12282
▁coul	-12283
▁coup	-12284
▁crom	-12285
▁dain	-12286
▁damp	-12287
▁dill	-12288
▁dise	-12289
▁dock	-12290
▁fanc	-12291
▁flux	-12292
▁foll	-12293
▁fren	-12294
▁geni	-12295
▁gris	-12296
▁gunn	-12297
▁hawk	-12298
▁hema	-12299
▁hoof	-12300
▁infr	-12301
▁isog	-12302
▁junk	-12303
▁just	-12304
▁kash	-12305
▁kiss	-12306
▁last	-12307
▁lint	-12308
▁meal	-12309
▁mull	-12310
▁nett	-12311
▁nose	-12312
▁patr	-12313
▁paul	-12314
▁pith	-12315
▁publ	-12316
▁purp	-12317
▁rans	-12318
▁rapp	-12319
▁ream	-12320
▁recr	-12321
▁reso	-12322
▁rond	-12323
▁saff	-12324
▁sali	-12325
▁scia	-12326
▁shal	-12327
▁sore	-12328
▁stow	-12329
▁tect	-12330
▁ters	-12331
▁trot	-12332
▁twos	-12333
▁unfr	-12334
▁unid	-12335
▁verd	-12336
▁vide	-12337
▁vind	-12338
▁wang	-12339
aginal	-12340
agogic	-12341
associ	-12342
atosis	-12343
bridge	-12344
ceived	-12345
ensing	-12346
escing	-12347
escrip	-12348
essive	-12349
giving	-12350
iantly	-12351
inkled	-12352
liment	-12353
lining	-12354
olated	-12355
olithi	-12356
olysin	-12357
ording	-12358
oritic	-12359
ospher	-12360
otypes	-12361
phonia	-12362
ponder	-12363
ropped	-12364
spired	-12365
tivate	-12366
uritis	-12367
wester	-12368
ynamic	-12369
yproof	-12370
▁accus	-12371
▁acron	-12372
▁advis	-12373
▁album	-12374
▁apple	-12375
▁asphy	-12376
▁autod	-12377
▁balan	-12378
▁calyc	-12379
▁calyp	-12380
▁charm	-12381
▁clock	-12382
▁compl	-12383
▁conve	-12384
▁corac	-12385
▁decad	-12386
▁decap	-12387
▁digit	-12388
▁entre	-12389
▁false	-12390
▁fifty	-12391
▁indoc	-12392
▁influ	-12393
▁isoch	-12394
▁judic	-12395
▁kitch	-12396
▁lemon	-12397
▁marin	-12398
▁metat	-12399
▁moder	-12400
▁moist	-12401
▁paneg	-12402
▁psamm	-12403
▁rusty	-12404
▁salin	-12405
▁sanct	-12406
▁scyph	-12407
▁semio	-12408
▁semir	-12409
▁squee	-12410
▁stack	-12411
▁steth	-12412
▁subde	-12413
▁suber	-12414
▁torch	-12415
▁trail	-12416
▁trium	-12417
▁undet	-12418
▁unmet	-12419
▁unmod	-12420
▁unsol	-12421
archies	-12422
ativity	-12423
blingly	-12424
breaker	-12425
chamber	-12426
gically	-12427
grading	-12428
grained	-12429
growing	-12430
inguish	-12431
istance	-12432
ophoric	-12433
ophosph	-12434
oplegia	-12435
opteryg	-12436
oracoid	-12437
othermy	-12438
partite	-12439
prising	-12440
rations	-12441
rescent	-12442
seeming	-12443
studded	-12444
ulously	-12445
yllabic	-12446
▁carcin	-12447
▁compan	-12448
▁confer	-12449
▁differ	-12450
▁dispos	-12451
▁disput	-12452
▁dissol	-12453
▁endoth	-12454
▁imagin	-12455
▁interf	-12456
▁litter	-12457
▁metast	-12458
▁modern	-12459
▁muscul	-12460
▁needle	-12461
▁negoti	-12462
▁noninc	-12463
▁nonver	-12464
▁onomat	-12465
▁photoc	-12466
▁pithec	-12467
▁pleuro	-12468
▁plough	-12469
▁poison	-12470
▁premed	-12471
▁procur	-12472
▁pterid	-12473
▁quaint	-12474
▁solemn	-12475
▁superf	-12476
▁underb	-12477
▁underg	-12478
▁velvet	-12479
▁wooden	-12480
ditioned	-12481
emonstra	-12482
obiology	-12483
odynamic	-12484
olically	-12485
osporous	-12486
sibility	-12487
standing	-12488
ulations	-12489
vertible	-12490
▁anticom	-12491
▁categor	-12492
▁checker	-12493
▁degener	-12494
▁semicon	-12495
▁singles	-12496
advantage	-12497
enthusias	-12498
▁electrod	-12499
▁electrop	-12500
▁hypothec	-12501
▁roentgen	-12502
▁superint	-12503
ationalist	-12504
itableness	-12505
rification	-12506
▁tradition	-12507
alistically	-12508
▁revolution	-12509
bv	-12510
bw	-12511
cq	-12512
rj	-12513
uh	-12514
uu	-12515
wu	-12516
xs	-12517
yk	-12518
aby	-12519
adh	-12520
ael	-12521
cca	-12522
clu	-12523
cyl	-12524
ddi	-12525
dip	-12526
dye	-12527
eid	-12528
elu	-12529
emm	-12530
euc	-12531
exc	-12532
fat	-12533
hma	-12534
hue	-12535
igl	-12536
ivo	-12537
jas	-12538
kha	-12539
lva	-12540
lyb	-12541
niu	-12542
nno	-12543
nra	-12544
nty	-12545
onm	-12546
ovo	-12547
oys	-12548
pai	-12549
pay	-12550
rke	-12551
rki	-12552
rno	-12553
roz	-12554
rsa	-12555
rut	-12556
sot	-12557
ssn	-12558
ssy	-12559
tad	-12560
tma	-12561
wet	-12562
ypy	-12563
zab	-12564
▁ss	-12565
acus	-12566
adas	-12567
aite	-12568
alph	-12569
amat	-12570
anni	-12571
arre	-12572
arsi	-12573
arum	-12574
aryn	-12575
atim	-12576
axon	-12577
blin	-12578
bule	-12579
cide	-12580
cyan	-12581
door	-12582
eave	-12583
edal	-12584
efor	-12585
eger	-12586
enis	-12587
enos	-12588
epti	-12589
erce	-12590
erog	-12591
erri	-12592
etan	-12593
eway	-12594
exes	-12595
fair	-12596
feet	-12597
harp	-12598
hery	-12599
hips	-12600
igns	-12601
imos	-12602
itas	-12603
itum	-12604
lely	-12605
lemm	-12606
lint	-12607
llid	-12608
loph	-12609
loth	-12610
mete	-12611
mout	-12612
mped	-12613
nock	-12614
note	-12615
ocor	-12616
omme	-12617
onte	-12618
onus	-12619
orni	-12620
ospo	-12621
ossa	-12622
ozyg	-12623
plas	-12624
prot	-12625
psia	-12626
racy	-12627
ragg	-12628
rers	-12629
rhea	-12630
rius	-12631
roga	-12632
romi	-12633
roon	-12634
roup	-12635
rove	-12636
ruff	-12637
shan	-12638
shaw	-12639
sied	-12640
smal	-12641
sthe	-12642
tary	-12643
tean	-12644
temp	-12645
term	-12646
thet	-12647
tima	-12648
tome	-12649
trol	-12650
ubic	-12651
uism	-12652
ulid	-12653
ulty	-12654
unar	-12655
unga	-12656
unic	-12657
urat	-12658
urid	-12659
utri	-12660
vies	-12661
wake	-12662
xter	-12663
▁aar	-12664
▁aid	-12665
▁amm	-12666
▁anh	-12667
▁ary	-12668
▁bez	-12669
▁biz	-12670
▁byp	-12671
▁diz	-12672
▁dox	-12673
▁ema	-12674
▁esk	-12675
▁exe	-12676
▁fea	-12677
▁hic	-12678
▁hys	-12679
▁jem	-12680
▁jog	-12681
▁jut	-12682
▁kip	-12683
▁kod	-12684
▁lew	-12685
▁lex	-12686
▁lul	-12687
▁maw	-12688
▁myo	-12689
▁nee	-12690
▁nyc	-12691
▁oec	-12692
▁ora	-12693
▁phr	-12694
▁scy	-12695
▁sew	-12696
▁sik	-12697
▁sni	-12698
▁sot	-12699
▁tch	-12700
▁toy	-12701
▁ura	-12702
▁wha	-12703
▁xan	-12704
▁zel	-12705
abdom	-12706
agers	-12707
arier	-12708
ateur	-12709
bbing	-12710
cross	-12711
ebush	-12712
eeked	-12713
ellos	-12714
enden	-12715
enism	-12716
essel	-12717
eston	-12718
estor	-12719
estri	-12720
falls	-12721
fiers	-12722
fixed	-12723
fruit	-12724
gebra	-12725
gover	-12726
ichen	-12727
iddle	-12728
ifted	-12729
iless	-12730
indle	-12731
irish	-12732
irrig	-12733
ivene	-12734
latin	-12735
minal	-12736
mitic	-12737
nters	-12738
obium	-12739
oflag	-12740
olism	-12741
oncus	-12742
onish	-12743
ooted	-12744
oplan	-12745
orism	-12746
oscap	-12747
osmic	-12748
ouled	-12749
paced	-12750
rella	-12751
rices	-12752
robed	-12753
rophe	-12754
steal	-12755
stick	-12756
tally	-12757
ticks	-12758
tilla	-12759
tizer	-12760
tooth	-12761
ufact	-12762
ulari	-12763
uncle	-12764
wares	-12765
wears	-12766
words	-12767
yness	-12768
▁acer	-12769
▁agro	-12770
▁anil	-12771
▁arct	-12772
▁armo	-12773
▁bacc	-12774
▁baro	-12775
▁bech	-12776
▁bele	-12777
▁braw	-12778
▁burn	-12779
▁cadd	-12780
▁dece	-12781
▁doll	-12782
▁drom	-12783
▁echo	-12784
▁ento	-12785
▁euch	-12786
▁eyeb	-12787
▁face	-12788
▁file	-12789
▁fors	-12790
▁funn	-12791
▁glam	-12792
▁grog	-12793
▁gros	-12794
▁gyro	-12795
▁hick	-12796
▁hock	-12797
▁holy	-12798
▁impr	-12799
▁inar	-12800
▁inve	-12801
▁kang	-12802
▁kitt	-12803
▁lard	-12804
▁marg	-12805
▁marm	-12806
▁mech	-12807
▁misd	-12808
▁moth	-12809
▁mout	-12810
▁nost	-12811
▁noth	-12812
▁obst	-12813
▁orig	-12814
▁oxal	-12815
▁pamp	-12816
▁pati	-12817
▁pinc	-12818
▁plur	-12819
▁pour	-12820
▁roma	-12821
▁sear	-12822
▁shot	-12823
▁sidd	-12824
▁sold	-12825
▁soot	-12826
▁sple	-12827
▁spon	-12828
▁stap	-12829
▁stry	-12830
▁sylv	-12831
▁thec	-12832
▁thur	-12833
▁tomb	-12834
▁unag	-12835
▁unil	-12836
▁wain	-12837
▁walk	-12838
andria	-12839
barked	-12840
calcul	-12841
elitis	-12842
erious	-12843
etlike	-12844
fallen	-12845
idedly	-12846
ifical	-12847
minate	-12848
nizing	-12849
ologer	-12850
onally	-12851
orecep	-12852
orphic	-12853
osophy	-12854
osteal	-12855
othere	-12856
otoxic	-12857
parted	-12858
plated	-12859
ssness	-12860
stical	-12861
struck	-12862
tially	-12863
tonian	-12864
transm	-12865
ualize	-12866
uddled	-12867
ulsive	-12868
ureted	-12869
viable	-12870
▁activ	-12871
▁archa	-12872
▁autot	-12873
▁basil	-12874
▁bland	-12875
▁calci	-12876
▁chore	-12877
▁crist	-12878
▁deleg	-12879
▁empty	-12880
▁essay	-12881
▁exten	-12882
▁glaci	-12883
▁hedge	-12884
▁hygro	-12885
▁kines	-12886
▁kinet	-12887
▁local	-12888
▁lycop	-12889
▁misco	-12890
▁missp	-12891
▁negro	-12892
▁nonas	-12893
▁nonbl	-12894
▁nonch	-12895
▁oppos	-12896
▁osteo	-12897
▁parab	-12898
▁parti	-12899
▁pater	-12900
▁predi	-12901
▁ranch	-12902
▁razor	-12903
▁revel	-12904
▁salic	-12905
▁satan	-12906
▁schem	-12907
▁sixty	-12908
▁softs	-12909
▁surre	-12910
▁swing	-12911
▁taeni	-12912
▁terat	-12913
▁topsy	-12914
▁tower	-12915
▁uninf	-12916
▁viper	-12917
▁volum	-12918
▁welli	-12919
▁worst	-12920
ahedron	-12921
arching	-12922
charged	-12923
ectopia	-12924
ellidae	-12925
graphic	-12926
icalism	-12927
icating	-12928
ickness	-12929
iculous	-12930
oclimat	-12931
osition	-12932
ostasis	-12933
perfect	-12934
quinone	-12935
striped	-12936
▁anatom	-12937
▁antire	-12938
▁associ	-12939
▁canker	-12940
▁cement	-12941
▁cervic	-12942
▁concer	-12943
▁conson	-12944
▁contor	-12945
▁cooper	-12946
▁cultiv	-12947
▁dipter	-12948
▁disaff	-12949
▁dolich	-12950
▁fortun	-12951
▁ginger	-12952
▁hesper	-12953
▁orient	-12954
▁overlo	-12955
▁papill	-12956
▁paroch	-12957
▁poster	-12958
▁prepro	-12959
▁produc	-12960
▁prolet	-12961
▁quasia	-12962
▁salmon	-12963
▁secret	-12964
▁semian	-12965
▁septem	-12966
▁sports	-12967
▁stanch	-12968
▁stimul	-12969
▁street	-12970
▁suppos	-12971
▁trench	-12972
▁unforg	-12973
▁unpres	-12974
▁vertic	-12975
▁weight	-12976
▁wholes	-12977
breeding	-12978
gression	-12979
iliation	-12980
itiously	-12981
ogastric	-12982
ogically	-12983
ometries	-12984
onomical	-12985
ophyllum	-12986
orically	-12987
tempered	-12988
▁adulter	-12989
▁albumin	-12990
▁concent	-12991
▁overins	-12992
▁pseudob	-12993
▁quadric	-12994
▁scarlet	-12995
▁silvers	-12996
amination	-12997
evolution	-12998
itization	-12999
itousness	-13000
logically	-13001
matically	-13002
ocratical	-13003
tibleness	-13004
▁catholic	-13005
▁constitu	-13006
▁electrom	-13007
▁improvis	-13008
▁synchron	-13009
ordination	-13010
▁diphthong	-13011
▁represent	-13012
obiological	-13013
md	-13014
afe	-13015
bis	-13016
ccu	-13017
ceo	-13018
cry	-13019
cub	-13020
dyl	-13021
ebi	-13022
eom	-13023
esu	-13024
fli	-13025
fyi	-13026
gag	-13027
gni	-13028
gol	-13029
ibo	-13030
ika	-13031
iko	-13032
ipy	-13033
lil	-13034
lix	-13035
ltr	-13036
mah	-13037
mai	-13038
nmo	-13039
nry	-13040
ofa	-13041
oru	-13042
owi	-13043
oxa	-13044
pht	-13045
pou	-13046
rpr	-13047
sau	-13048
ske	-13049
sre	-13050
tse	-13051
tty	-13052
uir	-13053
uno	-13054
urc	-13055
url	-13056
ymy	-13057
yra	-13058
zal	-13059
▁dz	-13060
▁ix	-13061
▁pf	-13062
aboo	-13063
acto	-13064
adec	-13065
alve	-13066
amps	-13067
anos	-13068
apse	-13069
arat	-13070
arme	-13071
arya	-13072
asch	-13073
avis	-13074
avit	-13075
bold	-13076
butt	-13077
case	-13078
cave	-13079
chas	-13080
chil	-13081
cine	-13082
ckin	-13083
disc	-13084
diti	-13085
ecks	-13086
edus	-13087
elab	-13088
elet	-13089
elus	-13090
emas	-13091
epen	-13092
erle	-13093
esha	-13094
etti	-13095
gens	-13096
gree	-13097
hill	-13098
ibia	-13099
idiv	-13100
inen	-13101
ipel	-13102
ique	-13103
ishl	-13104
llus	-13105
nfor	-13106
nson	-13107
ogan	-13108
olve	-13109
omis	-13110
onas	-13111
onse	-13112
oran	-13113
oriz	-13114
orro	-13115
osan	-13116
otoc	-13117
pedi	-13118
pike	-13119
pily	-13120
ppin	-13121
quat	-13122
rais	-13123
rato	-13124
rend	-13125
rrel	-13126
rrow	-13127
rule	-13128
shod	-13129
spin	-13130
stor	-13131
thyl	-13132
tibl	-13133
ucos	-13134
ughs	-13135
ulan	-13136
ulou	-13137
urie	-13138
usis	-13139
uste	-13140
vall	-13141
vant	-13142
week	-13143
yism	-13144
yman	-13145
▁ads	-13146
▁ark	-13147
▁aun	-13148
▁bav	-13149
▁clu	-13150
▁dek	-13151
▁eco	-13152
▁epa	-13153
▁feb	-13154
▁gee	-13155
▁gub	-13156
▁gud	-13157
▁ini	-13158
▁ira	-13159
▁ish	-13160
▁kow	-13161
▁kri	-13162
▁lef	-13163
▁nad	-13164
▁nog	-13165
▁oar	-13166
▁oke	-13167
▁ply	-13168
▁rej	-13169
▁ror	-13170
▁sif	-13171
▁tuc	-13172
▁tug	-13173
▁ull	-13174
▁upc	-13175
▁vam	-13176
▁wim	-13177
▁wob	-13178
▁wro	-13179
▁yod	-13180
adism	-13181
agram	-13182
alien	-13183
aloid	-13184
anaph	-13185
anate	-13186
andin	-13187
angia	-13188
antin	-13189
arion	-13190
atico	-13191
bloss	-13192
cence	-13193
cules	-13194
ecess	-13195
ecial	-13196
edict	-13197
elize	-13198
ellas	-13199
essen	-13200
ewing	-13201
gedly	-13202
gered	-13203
getic	-13204
hatch	-13205
iches	-13206
ifero	-13207
ighty	-13208
igure	-13209
immed	-13210
indul	-13211
istan	-13212
ithme	-13213
keyed	-13214
letal	-13215
litis	-13216
netic	-13217
oides	-13218
opoli	-13219
osane	-13220
othor	-13221
otism	-13222
racti	-13223
ransp	-13224
riers	-13225
rison	-13226
scopy	-13227
sonia	-13228
stalk	-13229
stool	-13230
strat	-13231
urine	-13232
urist	-13233
urple	-13234
uspic	-13235
▁adop	-13236
▁alam	-13237
▁aper	-13238
▁argu	-13239
▁beli	-13240
▁bemo	-13241
▁boss	-13242
▁braz	-13243
▁chaw	-13244
▁chee	-13245
▁cist	-13246
▁cort	-13247
▁coth	-13248
▁cryp	-13249
▁daph	-13250
▁dart	-13251
▁daub	-13252
▁deer	-13253
▁dies	-13254
▁drip	-13255
▁eleg	-13256
▁enco	-13257
▁ende	-13258
▁este	-13259
▁ethi	-13260
▁eust	-13261
▁faun	-13262
▁fear	-13263
▁flas	-13264
▁galv	-13265
▁geor	-13266
▁grey	-13267
▁grun	-13268
▁hern	-13269
▁huff	-13270
▁hygi	-13271
▁jaun	-13272
▁jing	-13273
▁loll	-13274
▁lond	-13275
▁lust	-13276
▁metr	-13277
▁mick	-13278
▁minn	-13279
▁mott	-13280
▁odon	-13281
▁orph	-13282
▁osse	-13283
▁padd	-13284
▁perj	-13285
▁peti	-13286
▁phoc	-13287
▁puff	-13288
▁race	-13289
▁ramb	-13290
▁reck	-13291
▁rede	-13292
▁reun	-13293
▁rumb	-13294
▁sche	-13295
▁shab	-13296
▁shav	-13297
▁skid	-13298
▁smut	-13299
▁snip	-13300
▁sock	-13301
▁soup	-13302
▁sper	-13303
▁stay	-13304
▁take	-13305
▁tamb	-13306
▁teen	-13307
▁tere	-13308
▁tins	-13309
▁toil	-13310
▁unec	-13311
▁unip	-13312
▁unit	-13313
▁upro	-13314
▁valu	-13315
▁wint	-13316
abness	-13317
ackers	-13318
americ	-13319
ankton	-13320
ariums	-13321
arting	-13322
athers	-13323
ationa	-13324
barred	-13325
bation	-13326
bladed	-13327
cented	-13328
chment	-13329
efined	-13330
elding	-13331
enesis	-13332
enidae	-13333
entric	-13334
ercise	-13335
fining	-13336
gotten	-13337
hoofed	-13338
icient	-13339
ickers	-13340
isance	-13341
istill	-13342
itress	-13343
lunged	-13344
matous	-13345
monary	-13346
number	-13347
odonta	-13348
olling	-13349
omical	-13350
onidae	-13351
onomic	-13352
ontine	-13353
opodan	-13354
oprote	-13355
opular	-13356
orally	-13357
osulph	-13358
parent	-13359
pected	-13360
quency	-13361
regard	-13362
rolite	-13363
rolith	-13364
tainer	-13365
ticall	-13366
timate	-13367
tioner	-13368
ualist	-13369
ugging	-13370
ulidae	-13371
utably	-13372
valent	-13373
writer	-13374
▁alien	-13375
▁atten	-13376
▁bench	-13377
▁bloss	-13378
▁botan	-13379
▁britt	-13380
▁centr	-13381
▁chief	-13382
▁cramp	-13383
▁crank	-13384
▁dacty	-13385
▁decre	-13386
▁diast	-13387
▁elder	-13388
▁eleph	-13389
▁float	-13390
▁gladi	-13391
▁helio	-13392
▁herni	-13393
▁holog	-13394
▁imman	-13395
▁insec	-13396
▁ischi	-13397
▁jejun	-13398
▁lexic	-13399
▁loose	-13400
▁matri	-13401
▁meter	-13402
▁misap	-13403
▁misde	-13404
▁mycet	-13405
▁navig	-13406
▁noner	-13407
▁nonop	-13408
▁ovari	-13409
▁overe	-13410
▁pedic	-13411
▁pratt	-13412
▁prech	-13413
▁premi	-13414
▁priap	-13415
▁prism	-13416
▁queer	-13417
▁racem	-13418
▁rapid	-13419
▁reneg	-13420
▁retre	-13421
▁royal	-13422
▁rural	-13423
▁schol	-13424
▁sesqu	-13425
▁shock	-13426
▁slang	-13427
▁smith	-13428
▁speci	-13429
▁spike	-13430
▁sprit	-13431
▁stann	-13432
▁steph	-13433
▁strip	-13434
▁subco	-13435
▁sulfo	-13436
▁third	-13437
▁unfer	-13438
▁vatic	-13439
▁vesti	-13440
▁vocal	-13441
▁wellc	-13442
▁whiff	-13443
▁wrath	-13444
albumin	-13445
ascular	-13446
binding	-13447
ceiving	-13448
commend	-13449
created	-13450
elastic	-13451
emonger	-13452
endency	-13453
enteric	-13454
ervical	-13455
estrian	-13456
hibited	-13457
hunting	-13458
ilation	-13459
ivalent	-13460
ocation	-13461
omestic	-13462
onistic	-13463
ophytic	-13464
opteran	-13465
raction	-13466
ringing	-13467
wounded	-13468
▁accent	-13469
▁aggreg	-13470
▁anchor	-13471
▁anthra	-13472
▁ballad	-13473
▁beaver	-13474
▁brazen	-13475
▁captiv	-13476
▁cherry	-13477
▁corrup	-13478
▁dendro	-13479
▁design	-13480
▁dialog	-13481
▁duodec	-13482
▁eighty	-13483
▁halfsh	-13484
▁hemato	-13485
▁hybrid	-13486
▁hypoph	-13487
▁import	-13488
▁intens	-13489
▁ninety	-13490
▁nonequ	-13491
▁noninf	-13492
▁nonrep	-13493
▁odonto	-13494
▁ostrac	-13495
▁parrot	-13496
▁plasmo	-13497
▁preass	-13498
▁presub	-13499
▁procon	-13500
▁protoc	-13501
▁quasil	-13502
▁sphygm	-13503
▁spider	-13504
▁sulpho	-13505
▁tetrac	-13506
▁threec	-13507
▁threep	-13508
▁turnip	-13509
▁twenty	-13510
▁underf	-13511
actylous	-13512
ectomize	-13513
emanship	-13514
emically	-13515
lization	-13516
mindedly	-13517
odontoid	-13518
phyllous	-13519
piercing	-13520
pressing	-13521
ritorial	-13522
tisation	-13523
▁correct	-13524
▁country	-13525
▁dispers	-13526
▁doubled	-13527
▁intrans	-13528
▁occipit	-13529
▁ophthal	-13530
▁peacock	-13531
▁popular	-13532
▁regener	-13533
▁slipper	-13534
▁special	-13535
▁spondyl	-13536
▁superad	-13537
▁trichin	-13538
▁ventric	-13539
ochemical	-13540
onization	-13541
ventional	-13542
▁determin	-13543
▁interfer	-13544
▁transfer	-13545
gressively	-13546
iciousness	-13547
industrial	-13548
shouldered	-13549
▁cholecyst	-13550
▁contradic	-13551
▁discrimin	-13552
fh	-13553
aea	-13554
aub	-13555
bad	-13556
blu	-13557
cic	-13558
cyt	-13559
dop	-13560
eha	-13561
ffa	-13562
hav	-13563
hoi	-13564
iag	-13565
iid	-13566
imy	-13567
inx	-13568
jak	-13569
jon	-13570
kop	-13571
lak	-13572
lch	-13573
may	-13574
myc	-13575
nay	-13576
nbe	-13577
nlo	-13578
opu	-13579
pox	-13580
rlo	-13581
ryn	-13582
six	-13583
sli	-13584
tup	-13585
two	-13586
ugo	-13587
umo	-13588
upr	-13589
utc	-13590
weg	-13591
▁aa	-13592
▁eo	-13593
▁mm	-13594
▁tm	-13595
agli	-13596
anat	-13597
apan	-13598
argo	-13599
arts	-13600
atee	-13601
ault	-13602
bian	-13603
boun	-13604
clud	-13605
culo	-13606
curr	-13607
deep	-13608
dite	-13609
dren	-13610
edia	-13611
efin	-13612
elid	-13613
elim	-13614
elyn	-13615
emes	-13616
eney	-13617
enge	-13618
ensa	-13619
epha	-13620
erot	-13621
erts	-13622
erva	-13623
espr	-13624
feud	-13625
fica	-13626
flop	-13627
gite	-13628
goes	-13629
heri	-13630
hick	-13631
hoto	-13632
hout	-13633
hyal	-13634
ibel	-13635
ibli	-13636
indu	-13637
inee	-13638
inum	-13639
ippy	-13640
irer	-13641
irin	-13642
isty	-13643
lasm	-13644
leep	-13645
lige	-13646
maki	-13647
mbed	-13648
mena	-13649
mole	-13650
nner	-13651
nour	-13652
nthe	-13653
ntre	-13654
ocus	-13655
odio	-13656
olen	-13657
omim	-13658
onem	-13659
onex	-13660
opne	-13661
orde	-13662
oreg	-13663
osop	-13664
otum	-13665
past	-13666
plow	-13667
prec	-13668
proc	-13669
pton	-13670
rabl	-13671
rano	-13672
rapt	-13673
rews	-13674
ribe	-13675
rids	-13676
ripe	-13677
sely	-13678
smic	-13679
sque	-13680
syll	-13681
tens	-13682
tras	-13683
ubly	-13684
uent	-13685
uged	-13686
umpt	-13687
utte	-13688
vied	-13689
vish	-13690
wang	-13691
weig	-13692
▁abr	-13693
▁aet	-13694
▁aim	-13695
▁buf	-13696
▁dei	-13697
▁duk	-13698
▁evi	-13699
▁feu	-13700
▁ged	-13701
▁jeh	-13702
▁jok	-13703
▁kob	-13704
▁kop	-13705
▁lal	-13706
▁loa	-13707
▁ode	-13708
▁oes	-13709
▁orc	-13710
▁oth	-13711
▁pae	-13712
▁pix	-13713
▁rol	-13714
▁roo	-13715
▁sly	-13716
▁upl	-13717
▁vet	-13718
▁vog	-13719
▁zim	-13720
abond	-13721
acula	-13722
allus	-13723
amina	-13724
amite	-13725
ammer	-13726
anine	-13727
annon	-13728
appen	-13729
asers	-13730
astes	-13731
athes	-13732
atori	-13733
biest	-13734
chang	-13735
check	-13736
chond	-13737
cient	-13738
edral	-13739
eeyed	-13740
elily	-13741
elman	-13742
enton	-13743
erior	-13744
eward	-13745
geful	-13746
gesia	-13747
grace	-13748
holes	-13749
iable	-13750
iancy	-13751
ieval	-13752
igura	-13753
inium	-13754
inkle	-13755
lator	-13756
leeve	-13757
lemen	-13758
liver	-13759
matur	-13760
night	-13761
nment	-13762
obrom	-13763
ocarc	-13764
ochor	-13765
ocrin	-13766
olize	-13767
omial	-13768
oncon	-13769
otech	-13770
otous	-13771
ourer	-13772
phite	-13773
print	-13774
rages	-13775
shift	-13776
shine	-13777
stain	-13778
tails	-13779
thene	-13780
titud	-13781
tlike	-13782
toral	-13783
toxin	-13784
uccin	-13785
ulgar	-13786
ulian	-13787
unces	-13788
unked	-13789
urean	-13790
urial	-13791
usted	-13792
utton	-13793
wayed	-13794
witch	-13795
▁adia	-13796
▁admi	-13797
▁afte	-13798
▁alld	-13799
▁aman	-13800
▁amen	-13801
▁anor	-13802
▁apos	-13803
▁appl	-13804
▁bail	-13805
▁bala	-13806
▁beam	-13807
▁bend	-13808
▁blat	-13809
▁bonn	-13810
▁brea	-13811
▁brit	-13812
▁bung	-13813
▁caco	-13814
▁came	-13815
▁cera	-13816
▁cere	-13817
▁chia	-13818
▁chip	-13819
▁chym	-13820
▁clot	-13821
▁coqu	-13822
▁craf	-13823
▁crim	-13824
▁cron	-13825
▁darn	-13826
▁dele	-13827
▁dera	-13828
▁disb	-13829
▁disg	-13830
▁dura	-13831
▁dwar	-13832
▁ecum	-13833
▁ente	-13834
▁epiz	-13835
▁erem	-13836
▁erot	-13837
▁euda	-13838
▁exor	-13839
▁exul	-13840
▁forn	-13841
▁fruc	-13842
▁gamm	-13843
▁gand	-13844
▁gaud	-13845
▁gild	-13846
▁gren	-13847
▁hemo	-13848
▁heta	-13849
▁imag	-13850
▁impo	-13851
▁isch	-13852
▁judg	-13853
▁knif	-13854
▁lark	-13855
▁levi	-13856
▁lori	-13857
▁mete	-13858
▁mint	-13859
▁morm	-13860
▁muff	-13861
▁mugg	-13862
▁neat	-13863
▁osph	-13864
▁outl	-13865
▁pedi	-13866
▁plag	-13867
▁popp	-13868
▁puck	-13869
▁pycn	-13870
▁rela	-13871
▁resi	-13872
▁roch	-13873
▁ront	-13874
▁room	-13875
▁rost	-13876
▁sacr	-13877
▁scep	-13878
▁sele	-13879
▁sett	-13880
▁skip	-13881
▁smal	-13882
▁sout	-13883
▁spoo	-13884
▁spri	-13885
▁steg	-13886
▁syst	-13887
▁tarp	-13888
▁trum	-13889
▁tsar	-13890
▁tuck	-13891
▁twob	-13892
▁uned	-13893
▁urop	-13894
▁vinc	-13895
▁wake	-13896
▁wamp	-13897
▁weig	-13898
▁whel	-13899
▁whor	-13900
adelph	-13901
allied	-13902
ardiac	-13903
ascope	-13904
ativel	-13905
barbar	-13906
course	-13907
ducing	-13908
ellite	-13909
entous	-13910
erator	-13911
espect	-13912
estate	-13913
estral	-13914
father	-13915
finger	-13916
geable	-13917
hearte	-13918
ianist	-13919
iation	-13920
ilicic	-13921
imorph	-13922
ionate	-13923
ionism	-13924
istant	-13925
itness	-13926
lating	-13927
lative	-13928
lectic	-13929
lesome	-13930
matist	-13931
mbered	-13932
minist	-13933
modern	-13934
onious	-13935
ophyre	-13936
oppers	-13937
oretic	-13938
ostrac	-13939
otrich	-13940
ourage	-13941
rament	-13942
rapher	-13943
render	-13944
respon	-13945
rogate	-13946
rotype	-13947
string	-13948
ulting	-13949
umatic	-13950
uncing	-13951
uridae	-13952
veable	-13953
vement	-13954
walker	-13955
▁aller	-13956
▁amber	-13957
▁amphi	-13958
▁ankyl	-13959
▁antib	-13960
▁arter	-13961
▁ather	-13962
▁baker	-13963
▁beast	-13964
▁belli	-13965
▁bromo	-13966
▁bulld	-13967
▁bully	-13968
▁chama	-13969
▁chant	-13970
▁coass	-13971
▁colle	-13972
▁crims	-13973
▁crumb	-13974
▁cyath	-13975
▁diazo	-13976
▁divid	-13977
▁divin	-13978
▁emend	-13979
▁expan	-13980
▁explo	-13981
▁extre	-13982
▁faint	-13983
▁ferre	-13984
▁fiend	-13985
▁georg	-13986
▁gypsy	-13987
▁hemis	-13988
▁incor	-13989
▁indec	-13990
▁indef	-13991
▁infus	-13992
▁inton	-13993
▁irred	-13994
▁japan	-13995
▁juris	-13996
▁lapid	-13997
▁major	-13998
▁malef	-13999
▁march	-14000
▁nomin	-14001
▁orchi	-14002
▁outsw	-14003
▁pamph	-14004
▁panch	-14005
▁peach	-14006
▁phleg	-14007
▁pinac	-14008
▁postc	-14009
▁posti	-14010
▁presh	-14011
▁proof	-14012
▁quack	-14013
▁recol	-14014
▁redec	-14015
▁reduc	-14016
▁reemb	-14017
▁reman	-14018
▁remin	-14019
▁reple	-14020
▁sacro	-14021
▁salam	-14022
▁scyth	-14023
▁shamm	-14024
▁solec	-14025
▁statu	-14026
▁strom	-14027
▁swamp	-14028
▁thank	-14029
▁unbra	-14030
▁uncer	-14031
▁unden	-14032
▁unemb	-14033
▁unexc	-14034
▁unpen	-14035
andrian	-14036
anticip	-14037
blooded	-14038
builder	-14039
ectasia	-14040
ensuous	-14041
escency	-14042
fruited	-14043
genesis	-14044
icolous	-14045
idently	-14046
ificate	-14047
ignment	-14048
insular	-14049
ionless	-14050
izabeth	-14051
lighten	-14052
nalized	-14053
ogerman	-14054
opteron	-14055
orrhoea	-14056
porting	-14057
ranchia	-14058
ressive	-14059
romorph	-14060
spiring	-14061
tioning	-14062
turable	-14063
univers	-14064
urizing	-14065
walking	-14066
wearing	-14067
▁americ	-14068
▁antine	-14069
▁astron	-14070
▁barrel	-14071
▁battle	-14072
▁bridge	-14073
▁candle	-14074
▁cellul	-14075
▁deform	-14076
▁desulf	-14077
▁enanti	-14078
▁entero	-14079
▁fantas	-14080
▁fright	-14081
▁gravel	-14082
▁hearth	-14083
▁hypost	-14084
▁impers	-14085
▁invent	-14086
▁lumber	-14087
▁macroc	-14088
▁metrop	-14089
▁monkey	-14090
▁multin	-14091
▁nephel	-14092
▁nonsup	-14093
▁orchid	-14094
▁parcel	-14095
▁pauper	-14096
▁perfec	-14097
▁polyph	-14098
▁prefer	-14099
▁premon	-14100
▁rabbit	-14101
▁recogn	-14102
▁screen	-14103
▁scrimp	-14104
▁selfde	-14105
▁septen	-14106
▁shadow	-14107
▁squire	-14108
▁tangle	-14109
▁thirst	-14110
▁threef	-14111
▁tongue	-14112
▁triang	-14113
▁trinit	-14114
▁unconc	-14115
▁unstra	-14116
athering	-14117
eberries	-14118
ensitive	-14119
ibration	-14120
iculture	-14121
logistic	-14122
omalacia	-14123
omatosis	-14124
omycetes	-14125
ophistic	-14126
otypical	-14127
pointing	-14128
restrial	-14129
sounding	-14130
stically	-14131
stituted	-14132
tainable	-14133
tingness	-14134
tivation	-14135
wardness	-14136
▁antipar	-14137
▁chamber	-14138
▁complex	-14139
▁concept	-14140
▁deliber	-14141
▁democra	-14142
▁ferment	-14143
▁hydroly	-14144
▁mineral	-14145
▁pneumon	-14146
▁pyramid	-14147
▁rejuven	-14148
▁underre	-14149
▁untrans	-14150
atability	-14151
entiality	-14152
unctional	-14153
▁american	-14154
▁cardinal	-14155
▁construc	-14156
▁intermed	-14157
▁personal	-14158
▁rational	-14159
▁thousand	-14160
ostomatous	-14161
▁metamorph	-14162
▁polychrom	-14163
entiousness	-14164
▁anthropomorph	-14165
bn	-14166
mg	-14167
nx	-14168
agm	-14169
awe	-14170
ayo	-14171
bif	-14172
bui	-14173
cem	-14174
cob	-14175
cys	-14176
dah	-14177
diu	-14178
eap	-14179
ecc	-14180
ecs	-14181
egl	-14182
eod	-14183
epu	-14184
ews	-14185
ifu	-14186
irn	-14187
kho	-14188
kid	-14189
llf	-14190
lug	-14191
mew	-14192
nai	-14193
nfr	-14194
nsm	-14195
nur	-14196
oam	-14197
oko	-14198
onr	-14199
osu	-14200
pap	-14201
peg	-14202
ppa	-14203
ppr	-14204
quo	-14205
rpe	-14206
rsp	-14207
sas	-14208
sos	-14209
tme	-14210
tut	-14211
ubd	-14212
vea	-14213
yak	-14214
yis	-14215
zos	-14216
▁eh	-14217
▁ez	-14218
▁nc	-14219
acro	-14220
agua	-14221
alus	-14222
ambo	-14223
arct	-14224
arne	-14225
auri	-14226
avas	-14227
bard	-14228
bine	-14229
body	-14230
boid	-14231
brom	-14232
caps	-14233
chid	-14234
coll	-14235
coni	-14236
deal	-14237
dean	-14238
dict	-14239
ecia	-14240
eign	-14241
eriz	-14242
erop	-14243
eset	-14244
eson	-14245
ethi	-14246
etho	-14247
etor	-14248
etts	-14249
euro	-14250
evel	-14251
fine	-14252
genc	-14253
geni	-14254
glar	-14255
gous	-14256
hang	-14257
hant	-14258
hial	-14259
iary	-14260
iciz	-14261
igor	-14262
ilda	-14263
ilus	-14264
inoc	-14265
iont	-14266
ircu	-14267
irds	-14268
john	-14269
lake	-14270
leto	-14271
lift	-14272
lime	-14273
liti	-14274
llen	-14275
llic	-14276
lnes	-14277
lour	-14278
lter	-14279
meri	-14280
metr	-14281
nali	-14282
nced	-14283
ndin	-14284
nean	-14285
neph	-14286
neur	-14287
ntis	-14288
ntro	-14289
ofth	-14290
ogni	-14291
onco	-14292
onyl	-14293
oots	-14294
opti	-14295
otur	-14296
owel	-14297
oxes	-14298
pear	-14299
prod	-14300
rael	-14301
resp	-14302
reth	-14303
rift	-14304
scus	-14305
shel	-14306
ssel	-14307
thol	-14308
tiss	-14309
toff	-14310
tria	-14311
trot	-14312
ttes	-14313
uces	-14314
uela	-14315
uity	-14316
ulet	-14317
undy	-14318
urne	-14319
urop	-14320
usin	-14321
usta	-14322
vist	-14323
wice	-14324
ylla	-14325
ynes	-14326
ypod	-14327
▁ans	-14328
▁avo	-14329
▁coy	-14330
▁dab	-14331
▁ere	-14332
▁exh	-14333
▁gap	-14334
▁gha	-14335
▁hah	-14336
▁hek	-14337
▁hub	-14338
▁kem	-14339
▁lah	-14340
▁lee	-14341
▁liz	-14342
▁moz	-14343
▁omm	-14344
▁oti	-14345
▁phl	-14346
▁seq	-14347
▁shu	-14348
▁smi	-14349
▁suz	-14350
▁urn	-14351
▁vat	-14352
▁waf	-14353
▁yow	-14354
▁yuc	-14355
ackle	-14356
addie	-14357
alloc	-14358
anned	-14359
annin	-14360
anoic	-14361
arach	-14362
arean	-14363
atura	-14364
avior	-14365
awood	-14366
breed	-14367
catio	-14368
child	-14369
clude	-14370
copic	-14371
cover	-14372
drunk	-14373
ellae	-14374
emplo	-14375
ennie	-14376
ensio	-14377
entum	-14378
eseen	-14379
estly	-14380
fting	-14381
glers	-14382
gradu	-14383
grant	-14384
gular	-14385
hetic	-14386
hurst	-14387
ibili	-14388
ience	-14389
ilium	-14390
illes	-14391
illum	-14392
inely	-14393
ingen	-14394
ingin	-14395
inlaw	-14396
inson	-14397
ishin	-14398
ismal	-14399
ithes	-14400
kable	-14401
letes	-14402
luent	-14403
minde	-14404
mooth	-14405
muner	-14406
obate	-14407
obile	-14408
ocycl	-14409
olemn	-14410
olike	-14411
olour	-14412
onary	-14413
onius	-14414
opore	-14415
orcin	-14416
orine	-14417
oslav	-14418
otton	-14419
ounce	-14420
ovate	-14421
phras	-14422
phyla	-14423
retic	-14424
rings	-14425
rinus	-14426
risti	-14427
ropia	-14428
royal	-14429
ryman	-14430
scent	-14431
shing	-14432
sider	-14433
stood	-14434
thite	-14435
throp	-14436
tibly	-14437
tling	-14438
track	-14439
ucous	-14440
ugher	-14441
ulder	-14442
urers	-14443
uried	-14444
uspid	-14445
verer	-14446
xanth	-14447
ylind	-14448
▁aeol	-14449
▁allu	-14450
▁anci	-14451
▁aren	-14452
▁bach	-14453
▁bagg	-14454
▁bare	-14455
▁barg	-14456
▁bery	-14457
▁bind	-14458
▁bist	-14459
▁cane	-14460
▁catt	-14461
▁chis	-14462
▁chok	-14463
▁corp	-14464
▁cory	-14465
▁crap	-14466
▁crem	-14467
▁curs	-14468
▁dais	-14469
▁damn	-14470
▁dani	-14471
▁desi	-14472
▁diat	-14473
▁ditt	-14474
▁donn	-14475
▁euro	-14476
▁exti	-14477
▁eyes	-14478
▁fenn	-14479
▁fidd	-14480
▁fili	-14481
▁flan	-14482
▁flap	-14483
▁gant	-14484
▁glor	-14485
▁haus	-14486
▁haut	-14487
▁hexa	-14488
▁hirs	-14489
▁hoar	-14490
▁hump	-14491
▁inso	-14492
▁isod	-14493
▁jamb	-14494
▁jesu	-14495
▁jord	-14496
▁juda	-14497
▁kern	-14498
▁khar	-14499
▁lect	-14500
▁live	-14501
▁load	-14502
▁lous	-14503
▁mela	-14504
▁mele	-14505
▁mezz	-14506
▁mine	-14507
▁more	-14508
▁morr	-14509
▁must	-14510
▁naum	-14511
▁outh	-14512
▁outj	-14513
▁ovat	-14514
▁perp	-14515
▁pict	-14516
▁pint	-14517
▁piti	-14518
▁pitt	-14519
▁pork	-14520
▁prag	-14521
▁pris	-14522
▁punk	-14523
▁pyrr	-14524
▁quir	-14525
▁raph	-14526
▁reas	-14527
▁rebo	-14528
▁recl	-14529
▁repo	-14530
▁reta	-14531
▁ridg	-14532
▁rope	-14533
▁rudd	-14534
▁sart	-14535
▁shit	-14536
▁sled	-14537
▁sunb	-14538
▁tact	-14539
▁thys	-14540
▁tink	-14541
▁tire	-14542
▁tith	-14543
▁titt	-14544
▁tren	-14545
▁true	-14546
▁turg	-14547
▁unaw	-14548
▁unir	-14549
▁unso	-14550
▁unus	-14551
▁vast	-14552
▁vint	-14553
▁wald	-14554
▁ware	-14555
abling	-14556
accord	-14557
agraph	-14558
ardium	-14559
asitic	-14560
astidi	-14561
atised	-14562
bedded	-14563
carbon	-14564
cement	-14565
ellary	-14566
emoral	-14567
enburg	-14568
erlike	-14569
esmith	-14570
etical	-14571
figure	-14572
hopper	-14573
ididae	-14574
ilical	-14575
linked	-14576
living	-14577
matize	-14578
neries	-14579
normal	-14580
ogamic	-14581
ogging	-14582
oglyph	-14583
opidae	-14584
orized	-14585
otrope	-14586
ouched	-14587
placed	-14588
potent	-14589
quoted	-14590
racted	-14591
ristic	-14592
scribe	-14593
tative	-14594
ternal	-14595
thenic	-14596
tifier	-14597
umming	-14598
unched	-14599
waters	-14600
▁acrid	-14601
▁alber	-14602
▁amino	-14603
▁archd	-14604
▁aspid	-14605
▁astig	-14606
▁avoid	-14607
▁bathy	-14608
▁beach	-14609
▁bragg	-14610
▁bride	-14611
▁bronz	-14612
▁camer	-14613
▁camph	-14614
▁cheer	-14615
▁chord	-14616
▁ciner	-14617
▁cobal	-14618
▁collo	-14619
▁compt	-14620
▁couch	-14621
▁cyano	-14622
▁decal	-14623
▁decon	-14624
▁deduc	-14625
▁denud	-14626
▁direc	-14627
▁disap	-14628
▁disem	-14629
▁domic	-14630
▁excep	-14631
▁fasci	-14632
▁fiery	-14633
▁fleec	-14634
▁foots	-14635
▁force	-14636
▁frees	-14637
▁fried	-14638
▁frizz	-14639
▁front	-14640
▁griev	-14641
▁harsh	-14642
▁innov	-14643
▁joint	-14644
▁juven	-14645
▁lazar	-14646
▁lyric	-14647
▁maxim	-14648
▁mercu	-14649
▁metag	-14650
▁naked	-14651
▁ostra	-14652
▁outfl	-14653
▁peter	-14654
▁piper	-14655
▁plast	-14656
▁pluvi	-14657
▁poeti	-14658
▁prese	-14659
▁prore	-14660
▁pyren	-14661
▁quadr	-14662
▁radio	-14663
▁reatt	-14664
▁sapon	-14665
▁sapph	-14666
▁scuti	-14667
▁semig	-14668
▁semiv	-14669
▁share	-14670
▁shirt	-14671
▁shrie	-14672
▁sling	-14673
▁sniff	-14674
▁spati	-14675
▁spiro	-14676
▁squin	-14677
▁stein	-14678
▁stubb	-14679
▁subdi	-14680
▁subst	-14681
▁sweep	-14682
▁thron	-14683
▁throw	-14684
▁tress	-14685
▁trill	-14686
▁trunc	-14687
▁uncur	-14688
▁unpic	-14689
▁unrid	-14690
▁unwar	-14691
▁utter	-14692
▁weird	-14693
▁wellw	-14694
▁where	-14695
▁whist	-14696
▁widow	-14697
acetate	-14698
ageable	-14699
allying	-14700
arrying	-14701
asiatic	-14702
atising	-14703
atistic	-14704
dressed	-14705
elcosis	-14706
emporal	-14707
ficient	-14708
idation	-14709
italian	-14710
learned	-14711
nsville	-14712
ococcus	-14713
odermic	-14714
ophenol	-14715
opinion	-14716
orption	-14717
otomist	-14718
phagous	-14719
planted	-14720
raceous	-14721
respect	-14722
ropical	-14723
ublican	-14724
umbered	-14725
ylating	-14726
yllable	-14727
▁alchem	-14728
▁amphig	-14729
▁animal	-14730
▁antisc	-14731
▁border	-14732
▁commit	-14733
▁diabol	-14734
▁dishon	-14735
▁duoden	-14736
▁easter	-14737
▁effect	-14738
▁emblem	-14739
▁hypern	-14740
▁incomm	-14741
▁indian	-14742
▁inquis	-14743
▁interv	-14744
▁itiner	-14745
▁lentic	-14746
▁linear	-14747
▁lubric	-14748
▁mangan	-14749
▁mellow	-14750
▁metric	-14751
▁montan	-14752
▁myrmec	-14753
▁nondef	-14754
▁nonint	-14755
▁oophor	-14756
▁overgl	-14757
▁overim	-14758
▁overpr	-14759
▁pallad	-14760
▁pancre	-14761
▁perist	-14762
▁permut	-14763
▁phyllo	-14764
▁prosop	-14765
▁protop	-14766
▁quater	-14767
▁recept	-14768
▁scolop	-14769
▁social	-14770
▁speech	-14771
▁stabil	-14772
▁states	-14773
▁stipul	-14774
▁strept	-14775
▁superd	-14776
▁superp	-14777
▁tariff	-14778
▁thalam	-14779
▁twicet	-14780
▁unform	-14781
▁vindic	-14782
adenitis	-14783
breathed	-14784
cornered	-14785
elliform	-14786
entiment	-14787
ependent	-14788
generate	-14789
iciously	-14790
ifoliate	-14791
itorship	-14792
ittering	-14793
omorphae	-14794
omycosis	-14795
ophilism	-14796
opoiesis	-14797
racticed	-14798
speaking	-14799
tionless	-14800
wreathed	-14801
▁command	-14802
▁commens	-14803
▁complic	-14804
▁concert	-14805
▁depreci	-14806
▁destruc	-14807
▁effemin	-14808
▁elastic	-14809
▁inhabit	-14810
▁instruc	-14811
▁journal	-14812
▁melanch	-14813
▁monarch	-14814
▁nonpers	-14815
▁perturb	-14816
▁picture	-14817
▁pseudod	-14818
▁respect	-14819
▁scroful	-14820
▁thalass	-14821
▁warrant	-14822
▁worship	-14823
architect	-14824
encephala	-14825
occipital	-14826
ocephalus	-14827
odynamics	-14828
orousness	-14829
reatening	-14830
ricalness	-14831
▁circular	-14832
▁commemor	-14833
▁extempor	-14834
▁national	-14835
▁precipit	-14836
▁quasicon	-14837
sj	-14838
abr	-14839
ako	-14840
aum	-14841
ccl	-14842
diz	-14843
dsp	-14844
eil	-14845
eot	-14846
fow	-14847
giv	-14848
gou	-14849
iad	-14850
ifl	-14851
inh	-14852
ioi	-14853
ipu	-14854
jap	-14855
kum	-14856
lud	-14857
lyt	-14858
mey	-14859
mog	-14860
nax	-14861
ncu	-14862
nei	-14863
nhe	-14864
niv	-14865
nme	-14866
nro	-14867
nyl	-14868
pag	-14869
pei	-14870
pio	-14871
rla	-14872
rpl	-14873
rwo	-14874
shu	-14875
sun	-14876
tay	-14877
thw	-14878
tiu	-14879
tod	-14880
ubo	-14881
ubu	-14882
umn	-14883
vac	-14884
vah	-14885
voi	-14886
whi	-14887
wri	-14888
yah	-14889
yno	-14890
ynt	-14891
zzl	-14892
zzo	-14893
▁md	-14894
▁yi	-14895
▁yp	-14896
acen	-14897
acri	-14898
alae	-14899
alon	-14900
aque	-14901
arad	-14902
arto	-14903
arus	-14904
beri	-14905
brut	-14906
burs	-14907
ceph	-14908
chlo	-14909
ciou	-14910
cist	-14911
croc	-14912
cyte	-14913
does	-14914
ebus	-14915
elat	-14916
elen	-14917
elos	-14918
emal	-14919
erte	-14920
esqu	-14921
eyes	-14922
fret	-14923
gant	-14924
ghte	-14925
guil	-14926
hala	-14927
hool	-14928
hori	-14929
hysi	-14930
iast	-14931
icor	-14932
inso	-14933
itra	-14934
itti	-14935
kets	-14936
knit	-14937
laud	-14938
lave	-14939
laze	-14940
lech	-14941
lemi	-14942
leng	-14943
leph	-14944
liac	-14945
lori	-14946
mian	-14947
nass	-14948
ncer	-14949
nent	-14950
nets	-14951
nned	-14952
nstr	-14953
ntim	-14954
ntri	-14955
ocke	-14956
ocry	-14957
odle	-14958
oflu	-14959
ogie	-14960
oida	-14961
oile	-14962
oire	-14963
omia	-14964
once	-14965
oniz	-14966
onre	-14967
onth	-14968
oose	-14969
opte	-14970
oram	-14971
otac	-14972
ourt	-14973
ousy	-14974
pace	-14975
perf	-14976
pium	-14977
prud	-14978
raco	-14979
rado	-14980
rath	-14981
resi	-14982
riot	-14983
rocl	-14984
roic	-14985
roke	-14986
roso	-14987
rout	-14988
rson	-14989
sets	-14990
span	-14991
stay	-14992
stig	-14993
suit	-14994
tino	-14995
uary	-14996
ulle	-14997
uned	-14998
usic	-14999
xtra	-15000
ycho	-15001
ylid	-15002
ymal	-15003
ynap	-15004
zily	-15005
zoal	-15006
▁agl	-15007
▁boa	-15008
▁emi	-15009
▁fry	-15010
▁hew	-15011
▁hey	-15012
▁hie	-15013
▁isa	-15014
▁kym	-15015
▁lia	-15016
▁mye	-15017
▁myt	-15018
▁nac	-15019
▁nol	-15020
▁nul	-15021
▁obj	-15022
▁oed	-15023
▁osi	-15024
▁raf	-15025
▁sei	-15026
▁tay	-15027
▁toi	-15028
▁unu	-15029
▁upw	-15030
▁vie	-15031
▁vip	-15032
▁voy	-15033
▁wic	-15034
▁yes	-15035
▁yon	-15036
▁zac	-15037
ained	-15038
amate	-15039
ariot	-15040
aspis	-15041
avage	-15042
bills	-15043
bloom	-15044
boned	-15045
boxes	-15046
burgh	-15047
cetic	-15048
cheat	-15049
clean	-15050
clear	-15051
coach	-15052
conce	-15053
culum	-15054
culus	-15055
devil	-15056
eaved	-15057
ecium	-15058
ensor	-15059
enten	-15060
entin	-15061
epres	-15062
fever	-15063
frame	-15064
gable	-15065
gging	-15066
hemia	-15067
hical	-15068
icken	-15069
icles	-15070
iculi	-15071
ifera	-15072
iffus	-15073
ifics	-15074
ifuge	-15075
ighte	-15076
inski	-15077
irate	-15078
ishna	-15079
itati	-15080
itial	-15081
lored	-15082
mania	-15083
manly	-15084
money	-15085
navig	-15086
neous	-15087
nidae	-15088
noble	-15089
obenz	-15090
ogens	-15091
olish	-15092
oller	-15093
onduc	-15094
onica	-15095
ooing	-15096
operi	-15097
orama	-15098
orrow	-15099
osaic	-15100
oshes	-15101
otaxy	-15102
otent	-15103
othic	-15104
paved	-15105
plete	-15106
posts	-15107
recon	-15108
rifug	-15109
riped	-15110
rosin	-15111
rymen	-15112
south	-15113
stica	-15114
timon	-15115
tment	-15116
ugged	-15117
ulata	-15118
ulist	-15119
upled	-15120
wrack	-15121
yclic	-15122
ynthe	-15123
▁abac	-15124
▁alab	-15125
▁anam	-15126
▁answ	-15127
▁arti	-15128
▁barn	-15129
▁beat	-15130
▁beef	-15131
▁befo	-15132
▁blun	-15133
▁blur	-15134
▁boar	-15135
▁caro	-15136
▁chag	-15137
▁cinc	-15138
▁clea	-15139
▁clow	-15140
▁crab	-15141
▁cumb	-15142
▁cune	-15143
▁dana	-15144
▁defa	-15145
▁dump	-15146
▁emig	-15147
▁enig	-15148
▁ense	-15149
▁enth	-15150
▁epib	-15151
▁ergo	-15152
▁exoc	-15153
▁eyed	-15154
▁feld	-15155
▁food	-15156
▁gibb	-15157
▁glab	-15158
▁grou	-15159
▁grub	-15160
▁hail	-15161
▁hemp	-15162
▁humb	-15163
▁hyst	-15164
▁immo	-15165
▁inca	-15166
▁isol	-15167
▁juli	-15168
▁kant	-15169
▁keys	-15170
▁lake	-15171
▁larc	-15172
▁like	-15173
▁look	-15174
▁mala	-15175
▁mani	-15176
▁nash	-15177
▁nath	-15178
▁nico	-15179
▁ocul	-15180
▁outm	-15181
▁oval	-15182
▁papy	-15183
▁patt	-15184
▁pawn	-15185
▁phan	-15186
▁phle	-15187
▁piec	-15188
▁piqu	-15189
▁pish	-15190
▁poth	-15191
▁punc	-15192
▁punt	-15193
▁purg	-15194
▁puri	-15195
▁rega	-15196
▁rete	-15197
▁rook	-15198
▁sala	-15199
▁scum	-15200
▁serp	-15201
▁shro	-15202
▁siss	-15203
▁skim	-15204
▁slab	-15205
▁slit	-15206
▁slot	-15207
▁soil	-15208
▁spum	-15209
▁sull	-15210
▁tand	-15211
▁tatt	-15212
▁teac	-15213
▁teph	-15214
▁tonn	-15215
▁tree	-15216
▁trif	-15217
▁twee	-15218
▁univ	-15219
▁vamp	-15220
▁vege	-15221
▁wand	-15222
▁wear	-15223
▁week	-15224
▁witt	-15225
▁wond	-15226
▁xylo	-15227
absorb	-15228
aggreg	-15229
agramm	-15230
anitic	-15231
anthem	-15232
anthes	-15233
asoned	-15234
asthen	-15235
atings	-15236
endron	-15237
enitic	-15238
entism	-15239
entist	-15240
erotic	-15241
ertion	-15242
forced	-15243
fuller	-15244
herent	-15245
heroic	-15246
ibular	-15247
ichthy	-15248
ilitar	-15249
ingled	-15250
ionary	-15251
ircuit	-15252
leries	-15253
letely	-15254
lified	-15255
lusion	-15256
motion	-15257
ogastr	-15258
ogonal	-15259
ologue	-15260
onised	-15261
onless	-15262
onserv	-15263
ormand	-15264
orough	-15265
oxylon	-15266
quette	-15267
racing	-15268
rapped	-15269
roller	-15270
ropean	-15271
ticing	-15272
tifies	-15273
tigate	-15274
tishly	-15275
tivism	-15276
topped	-15277
uclear	-15278
urrent	-15279
▁abstr	-15280
▁accom	-15281
▁annal	-15282
▁annex	-15283
▁archi	-15284
▁artem	-15285
▁artic	-15286
▁bless	-15287
▁carbo	-15288
▁chamb	-15289
▁cheap	-15290
▁chiro	-15291
▁coinc	-15292
▁colli	-15293
▁conte	-15294
▁devel	-15295
▁diaph	-15296
▁disre	-15297
▁disun	-15298
▁doubl	-15299
▁downs	-15300
▁embar	-15301
▁embro	-15302
▁engin	-15303
▁enzym	-15304
▁epich	-15305
▁escal	-15306
▁filic	-15307
▁flush	-15308
▁freew	-15309
▁gallo	-15310
▁glypt	-15311
▁guild	-15312
▁hypog	-15313
▁icter	-15314
▁illus	-15315
▁incap	-15316
▁indul	-15317
▁inner	-15318
▁krist	-15319
▁lecan	-15320
▁level	-15321
▁lever	-15322
▁lustr	-15323
▁marti	-15324
▁merit	-15325
▁nonel	-15326
▁omnip	-15327
▁parro	-15328
▁party	-15329
▁peace	-15330
▁perib	-15331
▁plebe	-15332
▁pluri	-15333
▁polyc	-15334
▁preap	-15335
▁prede	-15336
▁quind	-15337
▁recre	-15338
▁redis	-15339
▁regra	-15340
▁reich	-15341
▁remod	-15342
▁remon	-15343
▁repar	-15344
▁scree	-15345
▁skill	-15346
▁spine	-15347
▁squat	-15348
▁stagn	-15349
▁stuff	-15350
▁stump	-15351
▁subal	-15352
▁tamar	-15353
▁tawny	-15354
▁telet	-15355
▁teneb	-15356
▁terre	-15357
▁theod	-15358
▁thuri	-15359
▁tract	-15360
▁trade	-15361
▁tread	-15362
▁troll	-15363
▁trout	-15364
▁tulip	-15365
▁unbeg	-15366
▁unexp	-15367
▁unfre	-15368
▁unmon	-15369
▁unpur	-15370
▁unred	-15371
▁unsed	-15372
▁unsmo	-15373
▁unsta	-15374
▁unter	-15375
▁waist	-15376
▁whirl	-15377
▁wides	-15378
▁yello	-15379
achably	-15380
arditis	-15381
ectasis	-15382
efishes	-15383
eminded	-15384
empered	-15385
enchyma	-15386
enician	-15387
handled	-15388
isement	-15389
ismatic	-15390
issance	-15391
issible	-15392
istered	-15393
izingly	-15394
kindled	-15395
lectomy	-15396
ocarpus	-15397
odontid	-15398
omerism	-15399
onation	-15400
onymous	-15401
opathia	-15402
orbital	-15403
ordered	-15404
orhynch	-15405
ospinal	-15406
othetic	-15407
plastic	-15408
plicate	-15409
rectomy	-15410
rolling	-15411
rologic	-15412
romatic	-15413
rophyte	-15414
roscopy	-15415
scented	-15416
teously	-15417
tration	-15418
turally	-15419
urating	-15420
venient	-15421
versive	-15422
viously	-15423
▁aspers	-15424
▁blasto	-15425
▁chemic	-15426
▁chloro	-15427
▁colloc	-15428
▁colour	-15429
▁dissim	-15430
▁elater	-15431
▁examin	-15432
▁falcon	-15433
▁hippoc	-15434
▁hyperp	-15435
▁hyperv	-15436
▁hypoch	-15437
▁imperf	-15438
▁incred	-15439
▁indist	-15440
▁intran	-15441
▁macrom	-15442
▁moment	-15443
▁nephro	-15444
▁nimble	-15445
▁nitros	-15446
▁nonaff	-15447
▁nonmal	-15448
▁nonthe	-15449
▁overca	-15450
▁overwe	-15451
▁oxygen	-15452
▁parson	-15453
▁pectin	-15454
▁philli	-15455
▁philop	-15456
▁preach	-15457
▁precol	-15458
▁prerec	-15459
▁prison	-15460
▁pulmon	-15461
▁quartz	-15462
▁quasig	-15463
▁reconc	-15464
▁redoub	-15465
▁retard	-15466
▁sailor	-15467
▁sarcop	-15468
▁secund	-15469
▁shovel	-15470
▁sister	-15471
▁superi	-15472
▁surfac	-15473
▁turkey	-15474
▁unchar	-15475
▁undoub	-15476
▁unprof	-15477
▁unsuff	-15478
▁vision	-15479
▁volati	-15480
▁yester	-15481
▁zircon	-15482
balanced	-15483
bottomed	-15484
culation	-15485
efaction	-15486
espotted	-15487
finement	-15488
headedly	-15489
ificator	-15490
illation	-15491
interpre	-15492
ocyanide	-15493
odendron	-15494
orrhexis	-15495
ostomata	-15496
otherium	-15497
roidered	-15498
romantic	-15499
tinesses	-15500
tishness	-15501
uttering	-15502
▁account	-15503
▁austral	-15504
▁brahman	-15505
▁bureauc	-15506
▁conform	-15507
▁fashion	-15508
▁flagell	-15509
▁foreign	-15510
▁husband	-15511
▁institu	-15512
▁intersp	-15513
▁italian	-15514
▁noncomp	-15515
▁nonspec	-15516
▁pedicul	-15517
▁present	-15518
▁prevent	-15519
▁probosc	-15520
▁protest	-15521
▁pseudog	-15522
▁recuper	-15523
▁regular	-15524
▁repress	-15525
▁slumber	-15526
▁soldier	-15527
▁souther	-15528
▁sparrow	-15529
▁spright	-15530
▁suffrag	-15531
▁superre	-15532
amentally	-15533
atorially	-15534
embranous	-15535
formation	-15536
grammatic	-15537
rological	-15538
▁agglutin	-15539
▁electroc	-15540
▁interpre	-15541
▁scintill	-15542
▁superind	-15543
▁uncircum	-15544
ariousness	-15545
ensiveness	-15546
generative	-15547
ochromatic	-15548
omatically	-15549
riminating	-15550
urableness	-15551
worthiness	-15552
▁labyrinth	-15553
complexioned	-15554
ogenetically	-15555
otherapeutics	-15556
bh	-15557
cf	-15558
gf	-15559
pg	-15560
agl	-15561
akh	-15562
ayn	-15563
bse	-15564
bum	-15565
cce	-15566
cim	-15567
doe	-15568
efr	-15569
egm	-15570
enl	-15571
fox	-15572
fug	-15573
ghe	-15574
gom	-15575
hya	-15576
ifa	-15577
ifs	-15578
inl	-15579
isb	-15580
itl	-15581
job	-15582
kai	-15583
kow	-15584
kri	-15585
lca	-15586
ldi	-15587
lts	-15588
ltu	-15589
lym	-15590
mea	-15591
moo	-15592
mpy	-15593
ngn	-15594
nox	-15595
npl	-15596
nym	-15597
oag	-15598
oas	-15599
ohe	-15600
olp	-15601
omn	-15602
otu	-15603
ouk	-15604
rfe	-15605
rgy	-15606
rsu	-15607
rui	-15608
shl	-15609
sme	-15610
sob	-15611
tof	-15612
ubc	-15613
upy	-15614
uxe	-15615
wne	-15616
xit	-15617
xte	-15618
zil	-15619
▁ao	-15620
▁ej	-15621
▁ux	-15622
▁vl	-15623
▁vr	-15624
abia	-15625
acif	-15626
acio	-15627
adri	-15628
alas	-15629
alde	-15630
algi	-15631
alne	-15632
anel	-15633
apal	-15634
apod	-15635
arbo	-15636
arty	-15637
ashe	-15638
assy	-15639
atag	-15640
atra	-15641
atto	-15642
bily	-15643
blow	-15644
borg	-15645
bula	-15646
cean	-15647
chop	-15648
chow	-15649
cium	-15650
cize	-15651
crip	-15652
cyth	-15653
dded	-15654
dica	-15655
disp	-15656
dive	-15657
done	-15658
dust	-15659
ecil	-15660
ectr	-15661
eden	-15662
egon	-15663
elio	-15664
enan	-15665
ensu	-15666
eped	-15667
erel	-15668
erim	-15669
ethy	-15670
eyer	-15671
fera	-15672
fers	-15673
goer	-15674
hane	-15675
hemi	-15676
hern	-15677
hond	-15678
icot	-15679
idio	-15680
ienc	-15681
iers	-15682
ieve	-15683
iffe	-15684
imat	-15685
inab	-15686
irtu	-15687
isat	-15688
isma	-15689
lamp	-15690
lase	-15691
lata	-15692
liff	-15693
llis	-15694
lman	-15695
lops	-15696
many	-15697
mini	-15698
mmun	-15699
mora	-15700
name	-15701
nari	-15702
nche	-15703
nchi	-15704
neti	-15705
nfer	-15706
nias	-15707
nily	-15708
noff	-15709
obio	-15710
ochi	-15711
ollo	-15712
ombs	-15713
omeg	-15714
onop	-15715
onry	-15716
ophe	-15717
opur	-15718
orti	-15719
oshi	-15720
osse	-15721
otho	-15722
ovol	-15723
ppet	-15724
rago	-15725
regn	-15726
rked	-15727
rles	-15728
roct	-15729
ropi	-15730
scot	-15731
sily	-15732
sped	-15733
spic	-15734
spun	-15735
synd	-15736
tane	-15737
tang	-15738
tead	-15739
tech	-15740
tiva	-15741
tman	-15742
trea	-15743
troc	-15744
uban	-15745
ucal	-15746
uche	-15747
ugar	-15748
uner	-15749
unes	-15750
urna	-15751
uton	-15752
utra	-15753
uvre	-15754
veal	-15755
yang	-15756
▁aba	-15757
▁aed	-15758
▁aig	-15759
▁aly	-15760
▁any	-15761
▁apr	-15762
▁arv	-15763
▁asm	-15764
▁bey	-15765
▁bha	-15766
▁bie	-15767
▁chy	-15768
▁eld	-15769
▁ena	-15770
▁enw	-15771
▁fim	-15772
▁fot	-15773
▁gis	-15774
▁hud	-15775
▁iat	-15776
▁ith	-15777
▁jav	-15778
▁kaf	-15779
▁kep	-15780
▁lop	-15781
▁mex	-15782
▁nex	-15783
▁nug	-15784
▁oop	-15785
▁pab	-15786
▁pew	-15787
▁pog	-15788
▁sah	-15789
▁sys	-15790
▁usu	-15791
adine	-15792
adoes	-15793
alein	-15794
allin	-15795
almed	-15796
anous	-15797
astom	-15798
atary	-15799
aties	-15800
atten	-15801
blown	-15802
brand	-15803
burne	-15804
cheon	-15805
chium	-15806
clerk	-15807
culat	-15808
cycle	-15809
dynam	-15810
eated	-15811
econs	-15812
ectro	-15813
emate	-15814
emble	-15815
empir	-15816
enius	-15817
enson	-15818
entio	-15819
epsis	-15820
erout	-15821
eryth	-15822
eters	-15823
etoed	-15824
evers	-15825
fixes	-15826
forth	-15827
grate	-15828
haust	-15829
hiate	-15830
horns	-15831
hypno	-15832
ialis	-15833
ianis	-15834
icals	-15835
icket	-15836
ideal	-15837
igeon	-15838
igged	-15839
iline	-15840
imple	-15841
inary	-15842
inese	-15843
inten	-15844
iones	-15845
itied	-15846
larly	-15847
liber	-15848
lizes	-15849
lymph	-15850
makin	-15851
mance	-15852
mbing	-15853
ncies	-15854
ogged	-15855
oiled	-15856
okous	-15857
omena	-15858
omina	-15859
omini	-15860
omize	-15861
onton	-15862
orias	-15863
orize	-15864
orner	-15865
ospec	-15866
otage	-15867
othal	-15868
oxime	-15869
paper	-15870
piled	-15871
pirit	-15872
pregn	-15873
queen	-15874
quill	-15875
races	-15876
racks	-15877
racte	-15878
rafts	-15879
ragal	-15880
ragon	-15881
raxis	-15882
redly	-15883
resis	-15884
rocal	-15885
scale	-15886
scape	-15887
scure	-15888
sibil	-15889
solid	-15890
space	-15891
taine	-15892
teron	-15893
timed	-15894
title	-15895
totic	-15896
troub	-15897
ulite	-15898
unate	-15899
usher	-15900
utate	-15901
viate	-15902
ytown	-15903
▁able	-15904
▁acce	-15905
▁acra	-15906
▁agal	-15907
▁apic	-15908
▁apop	-15909
▁arro	-15910
▁arte	-15911
▁atte	-15912
▁attr	-15913
▁barr	-15914
▁bert	-15915
▁bibl	-15916
▁bolt	-15917
▁bras	-15918
▁brim	-15919
▁bruc	-15920
▁brut	-15921
▁bumm	-15922
▁bump	-15923
▁bust	-15924
▁cauc	-15925
▁chac	-15926
▁chum	-15927
▁chut	-15928
▁cili	-15929
▁clog	-15930
▁coac	-15931
▁coon	-15932
▁copp	-15933
▁crud	-15934
▁deck	-15935
▁dein	-15936
▁detr	-15937
▁dign	-15938
▁dirt	-15939
▁dove	-15940
▁ease	-15941
▁ebon	-15942
▁elae	-15943
▁elev	-15944
▁evan	-15945
▁ferm	-15946
▁font	-15947
▁from	-15948
▁godd	-15949
▁gond	-15950
▁gord	-15951
▁grip	-15952
▁guai	-15953
▁gulf	-15954
▁hiss	-15955
▁hopl	-15956
▁hull	-15957
▁inev	-15958
▁jose	-15959
▁kins	-15960
▁lagg	-15961
▁lani	-15962
▁leav	-15963
▁list	-15964
▁lump	-15965
▁lynd	-15966
▁mali	-15967
▁marl	-15968
▁meri	-15969
▁mesh	-15970
▁misa	-15971
▁mudd	-15972
▁myst	-15973
▁nere	-15974
▁obvi	-15975
▁oest	-15976
▁oner	-15977
▁phol	-15978
▁pign	-15979
▁pity	-15980
▁pleb	-15981
▁plic	-15982
▁plug	-15983
▁poik	-15984
▁pomm	-15985
▁prae	-15986
▁prat	-15987
▁proe	-15988
▁puzz	-15989
▁quan	-15990
▁rath	-15991
▁rebl	-15992
▁reca	-15993
▁resu	-15994
▁rome	-15995
▁rosy	-15996
▁runn	-15997
▁sarg	-15998
▁seac	-15999
▁seem	-16000
▁sess	-16001
▁shaf	-16002
▁shah	-16003
▁skat	-16004
▁smug	-16005
▁snak	-16006
▁snoo	-16007
▁spik	-16008
▁stab	-16009
▁stul	-16010
▁sure	-16011
▁syne	-16012
▁terc	-16013
▁tile	-16014
▁tine	-16015
▁trog	-16016
▁undo	-16017
▁untw	-16018
▁unve	-16019
▁wasp	-16020
▁wate	-16021
▁watt	-16022
▁whar	-16023
▁whee	-16024
▁wron	-16025
▁zest	-16026
alists	-16027
aments	-16028
amines	-16029
anidae	-16030
aptism	-16031
ariant	-16032
arseni	-16033
asters	-16034
atient	-16035
atious	-16036
breath	-16037
chemic	-16038
chless	-16039
cially	-16040
conduc	-16041
cutter	-16042
dening	-16043
ectual	-16044
emouth	-16045
empted	-16046
engine	-16047
eritic	-16048
estive	-16049
etless	-16050
facial	-16051
harden	-16052
heimer	-16053
iceous	-16054
ichord	-16055
inkers	-16056
itates	-16057
itises	-16058
jacket	-16059
jectiv	-16060
killed	-16061
liable	-16062
manned	-16063
mately	-16064
moidal	-16065
oceras	-16066
ocereb	-16067
odrome	-16068
oidean	-16069
olshev	-16070
onized	-16071
onymic	-16072
ophagi	-16073
osomal	-16074
physic	-16075
probri	-16076
quaint	-16077
rained	-16078
resses	-16079
rified	-16080
rinder	-16081
terers	-16082
thouse	-16083
tinent	-16084
uctive	-16085
umbled	-16086
uritic	-16087
utions	-16088
valued	-16089
▁achro	-16090
▁acrop	-16091
▁allog	-16092
▁ambul	-16093
▁aphid	-16094
▁ascle	-16095
▁auric	-16096
▁beati	-16097
▁bloom	-16098
▁blunt	-16099
▁bridg	-16100
▁calib	-16101
▁chast	-16102
▁cheek	-16103
▁cling	-16104
▁coars	-16105
▁coerc	-16106
▁comed	-16107
▁commo	-16108
▁copro	-16109
▁crass	-16110
▁creep	-16111
▁defec	-16112
▁demis	-16113
▁demod	-16114
▁despo	-16115
▁devis	-16116
▁devol	-16117
▁divis	-16118
▁embol	-16119
▁evang	-16120
▁favor	-16121
▁final	-16122
▁fleet	-16123
▁flock	-16124
▁folly	-16125
▁found	-16126
▁gabri	-16127
▁giddy	-16128
▁halfc	-16129
▁halfd	-16130
▁haver	-16131
▁hemid	-16132
▁hollo	-16133
▁imput	-16134
▁knick	-16135
▁labio	-16136
▁landl	-16137
▁laugh	-16138
▁lifes	-16139
▁lovel	-16140
▁matur	-16141
▁minis	-16142
▁motiv	-16143
▁ninep	-16144
▁ninth	-16145
▁nonem	-16146
▁nutri	-16147
▁opson	-16148
▁pelle	-16149
▁perio	-16150
▁pluck	-16151
▁polyd	-16152
▁polyg	-16153
▁preci	-16154
▁psitt	-16155
▁pylor	-16156
▁rachi	-16157
▁refri	-16158
▁reinf	-16159
▁relic	-16160
▁remar	-16161
▁resid	-16162
▁sales	-16163
▁sched	-16164
▁scorp	-16165
▁scraw	-16166
▁scuff	-16167
▁shant	-16168
▁shear	-16169
▁skull	-16170
▁slave	-16171
▁slugg	-16172
▁squal	-16173
▁stair	-16174
▁staph	-16175
▁steal	-16176
▁story	-16177
▁stret	-16178
▁synap	-16179
▁synec	-16180
▁troth	-16181
▁truss	-16182
▁unend	-16183
▁unhom	-16184
▁unhum	-16185
▁unken	-16186
▁waste	-16187
▁weath	-16188
▁wellp	-16189
▁whitt	-16190
▁wille	-16191
anilide	-16192
antimon	-16193
boiling	-16194
ceeding	-16195
chinned	-16196
emaster	-16197
embling	-16198
endance	-16199
endible	-16200
ensibly	-16201
erville	-16202
etailed	-16203
feather	-16204
iaceous	-16205
icephal	-16206
idingly	-16207
ileness	-16208
istency	-16209
itching	-16210
ittable	-16211
izement	-16212
lecular	-16213
menting	-16214
natured	-16215
ogenies	-16216
ophorus	-16217
otation	-16218
otheism	-16219
otheist	-16220
ractive	-16221
ressing	-16222
strated	-16223
ticidal	-16224
ticness	-16225
tivated	-16226
trusive	-16227
ubercul	-16228
ulgence	-16229
umptive	-16230
valuing	-16231
▁acclim	-16232
▁anglic	-16233
▁attain	-16234
▁backsl	-16235
▁bacter	-16236
▁barley	-16237
▁basket	-16238
▁beauti	-16239
▁beggar	-16240
▁calend	-16241
▁cradle	-16242
▁deodor	-16243
▁deoxid	-16244
▁deplor	-16245
▁disrup	-16246
▁dissip	-16247
▁doctor	-16248
▁experi	-16249
▁feeble	-16250
▁formic	-16251
▁franco	-16252
▁frivol	-16253
▁gallin	-16254
▁germin	-16255
▁gorgon	-16256
▁greens	-16257
▁herpet	-16258
▁housew	-16259
▁hunger	-16260
▁implic	-16261
▁imprec	-16262
▁inflex	-16263
▁legiti	-16264
▁microb	-16265
▁nonmet	-16266
▁orthos	-16267
▁overob	-16268
▁oversp	-16269
▁portra	-16270
▁preacc	-16271
▁preins	-16272
▁prince	-16273
▁profit	-16274
▁proxim	-16275
▁puzzle	-16276
▁quasit	-16277
▁resist	-16278
▁result	-16279
▁semiex	-16280
▁sesqui	-16281
▁shorts	-16282
▁sphing	-16283
▁splash	-16284
▁square	-16285
▁symbol	-16286
▁tarant	-16287
▁teeter	-16288
▁tetrad	-16289
▁tetras	-16290
▁traduc	-16291
▁traged	-16292
▁tympan	-16293
▁tyrann	-16294
▁unappe	-16295
▁unconf	-16296
▁unpret	-16297
▁unsati	-16298
▁verbal	-16299
▁vermin	-16300
▁victim	-16301
▁victor	-16302
appropri	-16303
atrophia	-16304
bordered	-16305
ceptible	-16306
changing	-16307
charging	-16308
elooking	-16309
freezing	-16310
isection	-16311
junction	-16312
junctive	-16313
obacteri	-16314
oclastic	-16315
ohumeral	-16316
orthodox	-16317
paration	-16318
riferous	-16319
sonville	-16320
tistical	-16321
▁annihil	-16322
▁aromati	-16323
▁bastard	-16324
▁colloqu	-16325
▁condens	-16326
▁confirm	-16327
▁crooked	-16328
▁demagne	-16329
▁develop	-16330
▁discern	-16331
▁distill	-16332
▁gastrop	-16333
▁heteroc	-16334
▁hydroph	-16335
▁mercuri	-16336
▁militar	-16337
▁nonsens	-16338
▁plastic	-16339
▁possess	-16340
▁refract	-16341
▁restric	-16342
▁scrutin	-16343
▁selfdis	-16344
▁traffic	-16345
chromatic	-16346
conscious	-16347
emotional	-16348
estroying	-16349
iferously	-16350
ographers	-16351
omination	-16352
_	-16353
▁	-16354
e	-16355
i	-16356
a	-16357
n	-16358
o	-16359
r	-16360
s	-16361
t	-16362
l	-16363
c	-16364
u	-16365
d	-16366
p	-16367
m	-16368
h	-16369
g	-16370
y	-16371
b	-16372
f	-16373
v	-16374
k	-16375
w	-16376
z	-16377
x	-16378
q	-16379
j	-16380
